{"vocab": {"\u2800": 0, "\u2801": 1, "\u2802": 2, "\u2803": 3, "\u2804": 4, "\u2805": 5, "\u2806": 6, "\u2807": 7, "\u2808": 8, "\u2809": 9, "\u280a": 10, "\u280b": 11, "\u280c": 12, "\u280d": 13, "\u280e": 14, "\u280f": 15, "\u2810": 16, "\u2811": 17, "\u2812": 18, "\u2813": 19, "\u2814": 20, "\u2815": 21, "\u2816": 22, "\u2817": 23, "\u2818": 24, "\u2819": 25, "\u281a": 26, "\u281b": 27, "\u281c": 28, "\u281d": 29, "\u281e": 30, "\u281f": 31, "\u2820": 32, "\u2821": 33, "\u2822": 34, "\u2823": 35, "\u2824": 36, "\u2825": 37, "\u2826": 38, "\u2827": 39, "\u2828": 40, "\u2829": 41, "\u282a": 42, "\u282b": 43, "\u282c": 44, "\u282d": 45, "\u282e": 46, "\u282f": 47, "\u2830": 48, "\u2831": 49, "\u2832": 50, "\u2833": 51, "\u2834": 52, "\u2835": 53, "\u2836": 54, "\u2837": 55, "\u2838": 56, "\u2839": 57, "\u283a": 58, "\u283b": 59, "\u283c": 60, "\u283d": 61, "\u283e": 62, "\u283f": 63, "\u2840": 64, "\u2841": 65, "\u2842": 66, "\u2843": 67, "\u2844": 68, "\u2845": 69, "\u2846": 70, "\u2847": 71, "\u2848": 72, "\u2849": 73, "\u284a": 74, "\u284b": 75, "\u284c": 76, "\u284d": 77, "\u284e": 78, "\u284f": 79, "\u2850": 80, "\u2851": 81, "\u2852": 82, "\u2853": 83, "\u2854": 84, "\u2855": 85, "\u2856": 86, "\u2857": 87, "\u2858": 88, "\u2859": 89, "\u285a": 90, "\u285b": 91, "\u285c": 92, "\u285d": 93, "\u285e": 94, "\u285f": 95, "\u2860": 96, "\u2861": 97, "\u2862": 98, "\u2863": 99, "\u2864": 100, "\u2865": 101, "\u2866": 102, "\u2867": 103, "\u2868": 104, "\u2869": 105, "\u286a": 106, "\u286b": 107, "\u286c": 108, "\u286d": 109, "\u286e": 110, "\u286f": 111, "\u2870": 112, "\u2871": 113, "\u2872": 114, "\u2873": 115, "\u2874": 116, "\u2875": 117, "\u2876": 118, "\u2877": 119, "\u2878": 120, "\u2879": 121, "\u287a": 122, "\u287b": 123, "\u287c": 124, "\u287d": 125, "\u287e": 126, "\u287f": 127, "\u2880": 128, "\u2881": 129, "\u2882": 130, "\u2883": 131, "\u2884": 132, "\u2885": 133, "\u2886": 134, "\u2887": 135, "\u2888": 136, "\u2889": 137, "\u288a": 138, "\u288b": 139, "\u288c": 140, "\u288d": 141, "\u288e": 142, "\u288f": 143, "\u2890": 144, "\u2891": 145, "\u2892": 146, "\u2893": 147, "\u2894": 148, "\u2895": 149, "\u2896": 150, "\u2897": 151, "\u2898": 152, "\u2899": 153, "\u289a": 154, "\u289b": 155, "\u289c": 156, "\u289d": 157, "\u289e": 158, "\u289f": 159, "\u28a0": 160, "\u28a1": 161, "\u28a2": 162, "\u28a3": 163, "\u28a4": 164, "\u28a5": 165, "\u28a6": 166, "\u28a7": 167, "\u28a8": 168, "\u28a9": 169, "\u28aa": 170, "\u28ab": 171, "\u28ac": 172, "\u28ad": 173, "\u28ae": 174, "\u28af": 175, "\u28b0": 176, "\u28b1": 177, "\u28b2": 178, "\u28b3": 179, "\u28b4": 180, "\u28b5": 181, "\u28b6": 182, "\u28b7": 183, "\u28b8": 184, "\u28b9": 185, "\u28ba": 186, "\u28bb": 187, "\u28bc": 188, "\u28bd": 189, "\u28be": 190, "\u28bf": 191, "\u28c0": 192, "\u28c1": 193, "\u28c2": 194, "\u28c3": 195, "\u28c4": 196, "\u28c5": 197, "\u28c6": 198, "\u28c7": 199, "\u28c8": 200, "\u28c9": 201, "\u28ca": 202, "\u28cb": 203, "\u28cc": 204, "\u28cd": 205, "\u28ce": 206, "\u28cf": 207, "\u28d0": 208, "\u28d1": 209, "\u28d2": 210, "\u28d3": 211, "\u28d4": 212, "\u28d5": 213, "\u28d6": 214, "\u28d7": 215, "\u28d8": 216, "\u28d9": 217, "\u28da": 218, "\u28db": 219, "\u28dc": 220, "\u28dd": 221, "\u28de": 222, "\u28df": 223, "\u28e0": 224, "\u28e1": 225, "\u28e2": 226, "\u28e3": 227, "\u28e4": 228, "\u28e5": 229, "\u28e6": 230, "\u28e7": 231, "\u28e8": 232, "\u28e9": 233, "\u28ea": 234, "\u28eb": 235, "\u28ec": 236, "\u28ed": 237, "\u28ee": 238, "\u28ef": 239, "\u28f0": 240, "\u28f1": 241, "\u28f2": 242, "\u28f3": 243, "\u28f4": 244, "\u28f5": 245, "\u28f6": 246, "\u28f7": 247, "\u28f8": 248, "\u28f9": 249, "\u28fa": 250, "\u28fb": 251, "\u28fc": 252, "\u28fd": 253, "\u28fe": 254, "\u28ff": 255, "<PAD>": 256, "<UNK>": 257, "<BOS>": 258, "<EOS>": 259, "\u2800\u2800": 260, "\u2800\u2800\u2800\u2800": 261, "\u2800\u2800\u2800\u2800\u2800\u2800\u2800\u2800": 262, "\u2800\u2800\u2800\u2800\u2800": 263, "\u2800\u2800\u2800\u2800\u2800\u2800\u2800\u2800\u2800": 264, "\u2812\u2800": 265, "\u2802\u2800": 266, "\u280a\u281d": 267, "\u2815\u281d": 268, "\u2811\u281d": 269, "\u280e\u2811": 270, "\u2800\u2800\u2800\u2800\u2800\u2800\u2800\u2800\u2800\u2800\u2800\u2800\u2800": 271, "\u2815\u2817": 272, "\u2836\u2800": 273, "\u2819\u2811": 274, "\u2807\u2811": 275, "\u2801\u281e": 276, "\u280e\u281e": 277, "\u2824\u2824": 278, "\u2817\u2811": 279, "\u2800\u2836\u2800": 280, "\u2817\u2801": 281, "\u280f\u2811": 282, "\u281e\u2811": 283, "\u2807\u280b": 284, "\u280e\u2811\u2807\u280b": 285, "\u2815\u2819\u2811": 286, "\u2800\u2800\u2800\u2800\u2800\u2800\u2800\u2800\u2800\u2800\u2800\u2800\u2800\u2800\u2800\u2800": 287, "\u280a\u2815\u281d": 288, "\u281e\u2800": 289, "\u280a\u2807": 290, "\u2825\u2817": 291, "\u283d\u280f\u2811": 292, "\u2824\u2812\u2800": 293, "\u280e\u2811\u2807\u280b\u2832": 294, "\u2801\u281d": 295, "\u281b\u2811": 296, "\u2801\u2807": 297, "\u2800\u2800\u2800\u2800\u2800\u2800\u2800\u2800\u2800\u2800\u2800\u2800\u2800\u2800\u2800\u2800\u2800": 298, "\u2817\u2801\u280a\u2807": 299, "\u2817\u2801\u280a\u2807\u2807\u2811": 300, "\u280b\u2800": 301, "\u2836\u2824": 302, "\u280e\u2800": 303, "\u2802\u2800\u2824": 304, "\u2824\u2824\u2824": 305, "\u2817\u2815": 306, "\u280a\u2809": 307, "\u2811\u2817": 308, "\u280a\u2819": 309, "\u2811\u2800": 310, "\u2809\u2815\u2819\u2811": 311, "\u280e\u281e\u2817": 312, "\u2801\u280e": 313, "\u2803\u2817\u2801\u280a\u2807\u2807\u2811": 314, "\u281e\u2813": 315, "\u2802\u2800\u2800\u2800\u2800\u2800\u2800\u2800\u2800\u2800\u2800\u2800\u2800\u2800": 316, "\u2801\u2817": 317, "\u285e\u283d\u280f\u2811": 318, "\u2807\u280a\u281d": 319, "\u283c\u2800": 320, "\u2811\u281d\u281e": 321, "\u282d\u281e": 322, "\u2811\u280e": 323, "\u2809\u2815\u281d": 324, "\u280d\u280f": 325, "\u2811\u2807": 326, "\u2836\u2836": 327, "\u2815\u2805": 328, "\u2809\u281e": 329, "\u2809\u2807": 330, "\u2824\u2836": 331, "\u2824\u2802\u2800\u2824": 332, "\u2815\u2805\u2811\u281d": 333, "\u285e\u283d\u280f\u2811\u2832": 334, "\u2815\u2817\u2819": 335, "\u280a\u281d\u281b": 336, "\u2825\u2817\u281d": 337, "\u281e\u2811\u282d\u281e": 338, "\u281e\u2825\u2817\u281d": 339, "\u280a\u281e": 340, "\u280a\u280b\u2800": 341, "\u285e\u2815\u2805\u2811\u281d": 342, "\u2800\u2800\u2800\u2800\u2800\u2800": 343, "\u285e\u2815\u2805\u2811\u281d\u285e\u283d\u280f\u2811\u2832": 344, "\u280b\u280a": 345, "\u2809\u2813": 346, "\u2815\u2817\u2800": 347, "\u2825\u281d": 348, "\u2825\u281e": 349, "\u2809\u2815": 350, "\u2819\u280a": 351, "\u2801\u281b\u2811": 352, "\u2801\u281e\u280a\u2815\u281d": 353, "\u2801\u280f": 354, "\u2824\u2812\u2800\u285e\u2815\u2805\u2811\u281d\u285e\u283d\u280f\u2811\u2832": 355, "\u2836\u2804": 356, "\u281e\u283d\u280f\u2811": 357, "\u280f\u2817\u2815": 358, "\u2817\u2811\u280e": 359, "\u2800\u2800\u2800\u2800\u2800\u2800\u2800\u2800\u2800\u2800\u2800\u2800\u2800\u2800\u2800\u2800\u2800\u2800\u2800\u2800\u2800": 360, "\u2817\u2811\u281e\u2825\u2817\u281d": 361, "\u2819\u2800": 362, "\u2801\u281d\u281b": 363, "\u2804\u2802\u2800": 364, "\u2800\u2800\u2800\u2800\u2800\u2800\u2800\u2800\u2800\u2800\u2800\u2800\u2800\u2800\u2800\u2800\u2800\u2800": 365, "\u2805\u2811": 366, "\u2819\u2811\u280b\u2800": 367, "\u2809\u2825\u2817": 368, "\u2812\u2800\u2800\u2800\u2800\u2800\u2800\u2800\u2800\u2800": 369, "\u280d\u2811": 370, "\u2817\u2811\u281e\u2825\u2817\u281d\u2800": 371, "\u2801\u281e\u2811": 372, "\u280a\u281d\u2800": 373, "\u2824\u281c": 374, "\u2825\u2807": 375, "\u281b\u2811\u281e": 376, "\u2807\u280a\u281d\u2811": 377, "\u2824\u2800": 378, "\u2801\u281d\u281b\u2825": 379, "\u2801\u281d\u281b\u2825\u2801\u281b\u2811": 380, "\u283a\u2815\u2817\u2819": 381, "\u2812\u2800\u2800\u2800\u2800\u2800\u2800\u2800\u2800\u2800\u2800\u2800\u2800\u2800": 382, "\u2809\u2811": 383, "\u281e\u2815": 384, "\u281e\u280a\u2815\u281d": 385, "\u2838\u280a\u2819": 386, "\u2819\u2815": 387, "\u281d\u2815\u2819\u2811": 388, "\u280e\u2815\u2817": 389, "\u2802\u2800\u2800\u2800\u2800\u2800\u2800\u2800\u2800\u2800\u2800\u2800\u2800\u2800\u2800\u2800\u2800\u2800": 390, "\u2855\u2857": 391, "\u280b\u2815\u2817\u2800": 392, "\u2812\u2800\u280e\u281e\u2817": 393, "\u2811\u281d\u2819": 394, "\u2801\u2803": 395, "\u2805\u2811\u283d": 396, "\u280a\u280d\u280f": 397, "\u280a\u280f": 398, "\u2809\u2825\u2817\u280e\u2815\u2817": 399, "\u2836\u280e\u2811\u2807\u280b": 400, "\u2812\u2800\u2804": 401, "\u281b\u2813": 402, "\u2807\u2815": 403, "\u2800\u2800\u2800\u2800\u2800\u2800\u2800\u2800\u2800\u2800\u2800\u2800\u2800\u2800": 404, "\u2802\u2800\u2800\u2800\u2800\u2800\u2800\u2800\u2800\u2800\u2800\u2800\u2800\u2800\u2824": 405, "\u2804\u2802\u2800\u2804": 406, "\u281e\u2811\u2817": 407, "\u2800\u2800\u2800\u2800\u2800\u2800\u2800\u2800\u2800\u2800": 408, "\u2809\u2807\u2801\u280e": 409, "\u2825\u2807\u281e": 410, "\u2824\u2824\u2824\u2800\u2800\u2800\u2800\u2800\u2800\u2800\u2800\u2800": 411, "\u2805\u2811\u283d\u283a\u2815\u2817\u2819": 412, "\u2804\u2836": 413, "\u280a\u280e\u281e": 414, "\u280b\u280a\u2807\u2811": 415, "\u2804\u2812\u2800\u2804": 416, "\u2803\u2815": 417, "\u2824\u281c\u2800": 418, "\u2825\u280d": 419, "\u280a\u280d\u280f\u2815\u2817": 420, "\u2819\u2801\u281e": 421, "\u2836\u2800\u2824\u281c\u2800": 422, "\u2806\u2800\u2800\u2800\u2800\u2800\u2800\u2800\u2800\u2800\u2800\u2800\u2800\u2800": 423, "\u2843\u2817\u2801\u280a\u2807\u2807\u2811": 424, "\u280e\u2832": 425, "\u2811\u281d\u2809\u2815\u2819\u2811": 426, "\u2800\u2836": 427, "\u2819\u2801\u281e\u2801": 428, "\u2821\u281d": 429, "\u2812\u2800\u2800\u2800\u2800\u2800\u2800\u2800\u2800\u2800\u2824\u2824\u2824": 430, "\u2815\u2825": 431, "\u2807\u2801\u281d\u281b\u2825\u2801\u281b\u2811": 432, "\u2825\u2811": 433, "\u280a\u281d\u281e": 434, "\u2845\u2851": 435, "\u2809\u2825\u2817\u280e\u2815\u2817\u2838": 436, "\u280f\u2825\u281e": 437, "\u2845\u2851\u287d": 438, "\u2817\u2815\u280d": 439, "\u2800\u280a\u281d\u2800": 440, "\u2801\u280f\u280f": 441, "\u287a\u2855\u2857": 442, "\u280b\u2817\u2815\u280d": 443, "\u2815\u2819": 444, "\u2845\u2851\u287d\u287a\u2855\u2857": 445, "\u2845\u2851\u287d\u287a\u2855\u2857\u2859": 446, "\u2815\u280a\u2809": 447, "\u2824\u2836\u2802\u2800": 448, "\u2824\u2836\u2802\u2800\u2836\u2824": 449, "\u280a\u280e": 450, "\u2801\u281e\u2825": 451, "\u280a\u280d\u280f\u2815\u2817\u281e\u2800": 452, "\u283d\u281d": 453, "\u2824\u2812\u2800\u285e\u2815\u2805\u2811\u281d\u285e\u283d\u280f\u2811\u2832\u2845\u2851\u287d\u287a\u2855\u2857\u2859": 454, "\u280f\u2801\u281e": 455, "\u2841\u2847": 456, "\u2824\u2802\u2800\u2824\u2805\u2811\u283d\u283a\u2815\u2817\u2819": 457, "\u2809\u2815\u281d\u281e": 458, "\u2803\u2817\u2801\u280a\u2807\u2807\u2811\u2838": 459, "\u284a\u285d": 460, "\u283d\u2800": 461, "\u280f\u2811\u2817": 462, "\u281d\u2801": 463, "\u2815\u281d\u2811": 464, "\u281e\u2811\u280d": 465, "\u2827\u2811\u2817": 466, "\u280b\u2817\u2815\u280d\u2800": 467, "\u2800\u2836\u2800\u2824": 468, "\u2827\u2815\u280a\u2809": 469, "\u2819\u2811\u2817": 470, "\u2836\u2800\u2800\u2800\u2800\u2800\u2800\u2800\u2800\u2800": 471, "\u281e\u280a": 472, "\u281e\u280e": 473, "\u2809\u281e\u280a\u2815\u281d": 474, "\u2836\u280e\u2811\u2807\u280b\u2832": 475, "\u2832\u281b\u2811\u281e": 476, "\u2817\u2811\u280e\u2825\u2807\u281e": 477, "\u280e\u2813": 478, "\u284f\u2851": 479, "\u2809\u2805": 480, "\u2812\u2800\u2800\u2800\u2800\u2800\u2800\u2800\u2800\u2800\u2800\u2800\u2800\u2800\u2800\u2800\u2800\u2800": 481, "\u2817\u2811\u2807": 482, "\u280f\u2815\u281d": 483, "\u281b\u2813\u281e": 484, "\u2817\u2815\u2817": 485, "\u283e\u2800\u2836\u2800": 486, "\u280e\u280a\u2815\u281d": 487, "\u2836\u280e\u2811\u2807\u280b\u2802\u2800": 488, "\u280d\u280f\u2807\u2811": 489, "\u280e\u2811\u2800": 490, "\u280a\u281d\u281b\u2800": 491, "\u280e\u2811\u280e": 492, "\u285d\u2815\u281d\u2811": 493, "\u2802\u2800\u2800\u2800\u2800\u2800\u2800\u2800\u2800\u2800": 494, "\u2811\u2809\u281e": 495, "\u2809\u2815\u2807": 496, "\u2800\u2800\u2800\u2800\u2800\u2800\u2800\u2800\u2800\u2800\u2800\u2800\u2800\u2800\u2819\u2811\u280b\u2800": 497, "\u2801\u280e\u2805": 498, "\u282b\u282f": 499, "\u280f\u2807": 500, "\u281e\u2815\u2800": 501, "\u2801\u280f\u280f\u2811\u281d\u2819": 502, "\u2824\u2812\u2800\u2824": 503, "\u280f\u281e\u280a\u2815\u281d": 504, "\u2807\u280a\u281d\u2811\u280e": 505, "\u2855\u285d": 506, "\u2811\u2819": 507, "\u281d\u2801\u280d\u2811": 508, "\u2802\u2800\u2800\u2800\u2800\u2800\u2800\u2800\u2800\u2800\u2800\u2800\u2800\u2800\u2800\u2800\u2800\u2800\u2800\u2800\u2800\u2800": 509, "\u2824\u2836\u2802\u2800\u2800\u2800\u2800\u2800\u2800\u2800\u2800\u2800\u2800\u2800\u2800\u2800": 510, "\u280e\u2811\u2807\u280b\u2832\u2809\u2825\u2817\u280e\u2815\u2817\u2838": 511, "\u2807\u2801\u2803": 512, "\u284e\u2841\u2847": 513, "\u283d\u281d\u2809": 514, "\u2803\u2817\u2801\u280a\u2807\u2807\u2811\u2800": 515, "\u2811\u282d": 516, "\u283a\u280a": 517, "\u2809\u2815\u281d\u281e\u2811\u281d\u281e": 518, "\u2807\u2801\u2803\u2811\u2807": 519, "\u281a\u2811\u2809\u281e": 520, "\u2817\u2801\u280f": 521, "\u280e\u2811\u280e\u280e\u280a\u2815\u281d": 522, "\u2817\u2832": 523, "\u2811\u2838": 524, "\u280d\u2801\u281e": 525, "\u280f\u2815\u281d\u280e\u2811": 526, "\u2800\u2800\u2800\u2800\u2800\u2824\u2824\u2824": 527, "\u283a\u280a\u281e\u2813": 528, "\u2812\u2800\u289a": 529, "\u280b\u2824": 530, "\u2803\u2801": 531, "\u283a\u2801": 532, "\u280a\u2809\u281e": 533, "\u280f\u282d": 534, "\u2824\u2836\u2802\u2800\u2800\u2800\u2800\u2800\u2800\u2800\u2800\u2800\u2800\u2800\u2800\u2800\u2836\u2824": 535, "\u2815\u2807": 536, "\u2800\u2800\u2800": 537, "\u2817\u2801\u280f\u2813": 538, "\u280a\u281e\u283d": 539, "\u281e\u2811\u2817\u281d": 540, "\u280a\u281e\u2800": 541, "\u282e\u2824": 542, "\u2809\u2807\u2801\u280e\u280e": 543, "\u281e\u280a\u2809": 544, "\u282f\u2800\u2800\u2800\u2800\u2800\u2800\u2800\u2800\u2800\u2800\u2800\u2800\u2800": 545, "\u284e\u285e": 546, "\u281e\u2813\u2811\u2800": 547, "\u2800\u2800\u2800\u2800\u2800\u2800\u2800\u2800\u2800\u2800\u2800\u2800\u2800\u2800\u2800\u2800\u2800\u2800\u2800\u2800\u2800\u2800": 548, "\u2836\u2800\u2800\u2800\u2800\u2800\u2800\u2800\u2800\u2800\u2800\u2800\u2800\u2800": 549, "\u280a\u280b": 550, "\u2801\u2825": 551, "\u281d\u2815": 552, "\u280b\u2801": 553, "\u2824\u2802\u2800\u2824\u2805\u2811\u283d\u283a\u2815\u2817\u2819\u2824\u2836\u2802\u2800\u2836\u2824": 554, "\u2801\u280f\u280f\u2811\u281d\u2819\u2836": 555, "\u280e\u2800\u2836\u2800": 556, "\u2811\u2809": 557, "\u2819\u280a\u2827": 558, "\u284e\u281e": 559, "\u280e\u280a": 560, "\u2838\u2838": 561, "\u2847\u280a\u280e\u281e": 562, "\u2811\u281d\u2825": 563, "\u2824\u2812\u2800\u285e\u2815\u2805\u2811\u281d\u285e\u283d\u280f\u2811\u2832\u2845\u2851\u287d\u287a\u2855\u2857\u2859\u2802\u2800\u2824": 564, "\u280d\u2815\u2819": 565, "\u2801\u280e\u283d\u281d\u2809": 566, "\u280e\u2809\u2807": 567, "\u285e\u287d": 568, "\u2823\u280c": 569, "\u280e\u283d": 570, "\u2811\u2817\u2817\u2815\u2817": 571, "\u281e\u2801\u280e\u2805": 572, "\u280e\u2809": 573, "\u285e\u287d\u284f\u2851": 574, "\u283f\u2800\u2800\u2800\u2800\u2800\u2800\u2800\u2800\u2800": 575, "\u2800\u2800\u2800\u2800\u2800\u2800\u2800\u2800\u2800\u2800\u2800\u2800\u2800\u2800\u2800\u2800\u2800\u2800\u2800\u2800\u2800\u2800\u2800\u2800\u2800\u2800": 576, "\u2809\u2815\u2819\u2811\u2800": 577, "\u2824\u2800\u2800\u2800\u2800\u2800": 578, "\u284a\u2847": 579, "\u280a\u281e\u2811\u280d": 580, "\u280d\u2811\u281d\u281e": 581, "\u280f\u2817\u2811": 582, "\u2801\u283a\u2801": 583, "\u282e\u280e\u281e\u2817": 584, "\u2824\u283e": 585, "\u2809\u2807\u2801\u280e\u280e\u2800": 586, "\u2803\u2815\u2807": 587, "\u2800\u2800\u2800\u2800\u2800\u2800\u2800\u2800\u2800\u2800\u2800\u2800\u2800\u2800\u2800\u2800\u2800\u2800\u2800\u2800\u2800\u2800\u2800\u2800\u2800": 588, "\u2815\u2825\u281b\u2813\u281e": 589, "\u283f\u2800": 590, "\u281b\u2817\u2801\u280f\u2813": 591, "\u2801\u2807\u2807": 592, "\u2801\u281d\u2819": 593, "\u280f\u2815": 594, "\u2817\u2811\u280e\u280f\u2815\u281d\u280e\u2811": 595, "\u280e\u2811\u2817": 596, "\u2819\u280a\u2815": 597, "\u289a\u289a": 598, "\u2859\u2851": 599, "\u280f\u2817\u2815\u281a\u2811\u2809\u281e": 600, "\u2801\u2819": 601, "\u2801\u2800": 602, "\u2801\u281d\u2819\u2800": 603, "\u280d\u2803\u2815\u2807": 604, "\u2893\u2824": 605, "\u2838\u281e\u283d\u280f\u2811": 606, "\u2812\u2800\u2800\u2800\u2800\u2800\u2824\u2824\u2824": 607, "\u280d\u2801\u281e\u2809\u2813": 608, "\u2827\u2801\u2807": 609, "\u2809\u2817\u2811": 610, "\u280f\u2801\u281e\u281e\u2811\u2817\u281d": 611, "\u2815\u2825\u281e": 612, "\u2811\u280e\u280e": 613, "\u2819\u2815\u281e\u2800": 614, "\u2847\u2851": 615, "\u2841\u285e": 616, "\u2812\u2800\u289a\u282d": 617, "\u280d\u280f\u2807\u2811\u281e\u280a\u2815\u281d": 618, "\u280a\u2827": 619, "\u2847\u2801\u281d\u281b\u2825\u2801\u281b\u2811": 620, "\u2801\u283a\u2801\u280a\u281e\u2800": 621, "\u2800\u282e": 622, "\u2836\u2800\u2800\u2800\u2800\u2800\u2800\u2800\u2800\u2800\u2800\u2800\u2800\u2800\u2800\u2800\u2800\u2800": 623, "\u2801\u281e\u280a\u2815\u281d\u280e\u2813": 624, "\u2801\u281e\u280a\u2815\u281d\u280e\u2813\u280a\u280f": 625, "\u289a\u2832": 626, "\u2801\u280e\u2800": 627, "\u280f\u2817\u2815\u280f\u2811\u2817": 628, "\u2824\u2812\u2800\u285e\u2815\u2805\u2811\u281d\u285e\u283d\u280f\u2811\u2832\u285e\u287d\u284f\u2851": 629, "\u284e\u2849": 630, "\u280e\u2811\u2807\u280b\u2832\u2838": 631, "\u2815\u2817\u2819\u2836\u2804": 632, "\u2801\u280f\u281e\u280a\u2809": 633, "\u2851\u281d": 634, "\u280a\u281d\u2819": 635, "\u2817\u280a": 636, "\u280b\u2825\u281d": 637, "\u2825\u280f": 638, "\u280a\u280e\u2800": 639, "\u2859\u280a\u2809\u281e": 640, "\u2804\u2836\u2812\u2800\u289a\u282d": 641, "\u2801\u280e\u283d\u281d\u2809\u2800": 642, "\u280d\u280d": 643, "\u2811\u281d\u2809\u2815\u2819\u2811\u2817\u2832": 644, "\u2801\u2825\u2819\u280a\u2815": 645, "\u2817\u2801\u281d": 646, "\u2815\u280f": 647, "\u280f\u2807\u2801": 648, "\u282e\u283e": 649, "\u2800\u2836\u2836\u2800": 650, "\u2801\u281e\u2811\u2800": 651, "\u2801\u2807\u283d": 652, "\u280e\u2801\u2807": 653, "\u2827\u2815\u280a\u2809\u2811": 654, "\u2800\u2800\u2800\u2800\u2800\u2800\u2800\u2800\u2800\u2800\u2800\u2800\u2800\u2800\u2800\u2800\u2800\u2800\u283c\u2800": 655, "\u2855\u280f\u281e\u280a\u2815\u281d": 656, "\u281e\u2838": 657, "\u2849\u2815\u281d": 658, "\u2827\u280a": 659, "\u280e\u281e\u2801\u2817": 660, "\u280e\u282e": 661, "\u284a\u281d": 662, "\u2809\u2811\u280f": 663, "\u2815\u2817\u283d": 664, "\u2807\u2811\u281d": 665, "\u2800\u280a\u280d\u280f\u2815\u2817\u281e\u2800": 666, "\u2855\u280f\u281e\u280a\u2815\u281d\u2801\u2807": 667, "\u281e\u2811\u282d\u281e\u2838": 668, "\u2801\u281e\u2825\u280e": 669, "\u2836\u2836\u2800": 670, "\u2809\u2817\u2811\u2801\u281e\u2811": 671, "\u281d\u2811": 672, "\u280a\u281d\u280f\u2825\u281e": 673, "\u2809\u2815\u281d\u280e\u281e": 674, "\u2801\u2827": 675, "\u2802\u2800\u2800\u2800\u2800\u2800\u2800\u2800\u2800\u2800\u2800\u2800\u2800\u2800\u2800\u2800\u2800\u2800\u2824": 676, "\u2893\u2824\u2819\u2815\u281e\u2800": 677, "\u2849\u2815": 678, "\u2815\u2817\u2811": 679, "\u280d\u2815\u2819\u2801\u2807": 680, "\u283a\u280a\u281e\u2813\u2800": 681, "\u2832\u2800": 682, "\u2807\u280a": 683, "\u2817\u2825\u2811": 684, "\u281b\u2811\u281e\u2838": 685, "\u2801\u2809\u281e": 686, "\u2800\u2800\u283c\u2800": 687, "\u2807\u280a\u281d\u2811\u2800": 688, "\u2817\u2811\u2801": 689, "\u2813\u2811": 690, "\u2801\u2803\u2807\u2811": 691, "\u280f\u2801\u281e\u2813": 692, "\u2817\u280a\u280f": 693, "\u2809\u2813\u2801\u2817": 694, "\u284e\u2841\u2847\u2800": 695, "\u280e\u283d\u280d\u2803\u2815\u2807": 696, "\u281e\u2813\u2815\u2825\u281b\u2813\u281e": 697, "\u2841\u281d": 698, "\u280d\u2801\u2817": 699, "\u2883\u2891": 700, "\u280b\u2815\u2817": 701, "\u2800\u2836\u2800\u280e\u2811\u2807\u280b\u2832": 702, "\u280e\u2836": 703, "\u281e\u280a\u280d\u2811": 704, "\u2811\u281d\u281e\u2800": 705, "\u280f\u2801\u2817": 706, "\u280b\u2825\u281d\u2809\u281e\u280a\u2815\u281d": 707, "\u2832\u2801\u280f\u280f\u2811\u281d\u2819\u2836": 708, "\u2811\u281d\u2809\u2815\u2819\u2811\u2817\u2832\u2811\u281d\u2809\u2815\u2819\u2811": 709, "\u285d\u2815\u2819\u2811": 710, "\u2815\u2825\u281e\u280f\u2825\u281e": 711, "\u2803\u2825": 712, "\u2849\u2815\u2819\u2811": 713, "\u2809\u2815\u2819\u2811\u2838": 714, "\u2821\u281d\u2800\u2800\u2800\u2800": 715, "\u2807\u280a\u281d\u2811\u2838": 716, "\u2819\u2838": 717, "\u2806\u2800": 718, "\u2801\u2809\u281e\u280a\u2827": 719, "\u2809\u2815\u280d\u280d": 720, "\u2813\u2801\u280f\u281e\u280a\u2809": 721, "\u2836\u2836\u2800\u2800\u2800\u2800\u2800\u2800\u2800\u2800\u2800": 722, "\u280f\u2817\u2815\u280f\u2811\u2817\u281e\u280a": 723, "\u281e\u281e": 724, "\u281b\u280a\u281d": 725, "\u280e\u2812\u2800": 726, "\u2809\u2807\u2801\u280e\u280e\u2836\u2824": 727, "\u2811\u2807\u280e\u2811\u2800": 728, "\u280a\u280b\u280a\u2809": 729, "\u285e\u2817\u2825\u2811": 730, "\u2832\u281b\u2811\u281e\u2836\u2824": 731, "\u2832\u280e": 732, "\u2811\u281e\u2800": 733, "\u2851\u2857": 734, "\u2824\u2802\u2800": 735, "\u281c\u2800": 736, "\u281e\u2817": 737, "\u2847\u280a\u280e\u281e\u282e": 738, "\u2824\u2802\u2800\u2824\u281e\u283d\u280f\u2811": 739, "\u280f\u2817\u2815\u280f\u2811\u2817\u281e\u280a\u2811\u280e": 740, "\u2819\u2801\u281e\u2811": 741, "\u281b\u281d": 742, "\u281d\u2815\u281e\u2800": 743, "\u2812\u2800\u280e\u281e\u2817\u2836\u2800\u2824\u281c\u2800": 744, "\u2812\u2812": 745, "\u2802\u2800\u2815\u2817\u2819\u2836\u2804": 746, "\u285e\u284a\u285d": 747, "\u2827\u2811\u2817\u280e": 748, "\u2824\u2824\u2824\u2800\u2800\u2800\u2800\u2800": 749, "\u2827\u2801\u2807\u2825\u2811": 750, "\u280b\u280a\u282d": 751, "\u2817\u2811\u2807\u2801\u281e\u280a\u2815\u281d\u280e\u2813\u280a\u280f": 752, "\u2827\u2811\u2817\u280e\u2801\u281e\u280a\u2815\u281d": 753, "\u2832\u2832": 754, "\u2824\u2802": 755, "\u2824\u2802\u2800\u2800\u2800\u2800\u2800\u2800\u2800\u2800\u2800\u2800\u2800\u2800\u2800\u2800\u2800\u2800\u2800": 756, "\u2843\u2817\u2801\u280a\u2807\u2807\u2811\u2893": 757, "\u2801\u2807\u283d\u2835": 758, "\u281e\u2815\u2805\u2811\u281d": 759, "\u2843\u2865": 760, "\u2843\u2865\u284a\u2847": 761, "\u2843\u2865\u284a\u2847\u285e\u284a\u285d": 762, "\u281b\u2817\u2815": 763, "\u2806\u2800\u2800\u2800\u2800\u2800\u2800\u2800\u2800\u2800": 764, "\u2883\u2891\u2891": 765, "\u2824\u2812\u2800\u285e\u2815\u2805\u2811\u281d\u285e\u283d\u280f\u2811\u2832\u2845\u2851\u287d\u287a\u2855\u2857\u2859\u2802\u2800\u2800\u2800\u2800\u2800\u2800\u2800\u2800\u2800\u2800\u2800\u2800\u2800\u2824": 766, "\u2801\u280e\u283d\u281d\u2809\u2800\u2819\u2811\u280b\u2800": 767, "\u280e\u281e\u2811": 768, "\u280d\u2801": 769, "\u2815\u2825\u2817": 770, "\u2817\u2801\u2809": 771, "\u2811\u281d\u2811\u2817": 772, "\u282f\u2824": 773, "\u281b\u281b\u2811": 774, "\u280d\u2815\u2819\u2811": 775, "\u2800\u2809\u2807\u2801\u280e\u280e\u2836\u2824": 776, "\u2800\u2836\u2800\u2801\u283a\u2801\u280a\u281e\u2800": 777, "\u285b\u2811\u281e\u2800": 778, "\u2836\u280e\u2811\u2807\u280b\u2836\u2800\u2824\u281c\u2800": 779, "\u2824\u2812\u2800\u285e\u2815\u2805\u2811\u281d\u285e\u283d\u280f\u2811\u2832\u2843\u2865\u284a\u2847\u285e\u284a\u285d": 780, "\u285e\u2800": 781, "\u280a\u2807\u2811": 782, "\u2803\u2801\u2809\u2805": 783, "\u2812\u2800\u2881": 784, "\u280a\u2835": 785, "\u2801\u2807\u280e\u2811": 786, "\u283f\u2836": 787, "\u280a\u281d\u280a\u281e": 788, "\u2811\u2807\u280a\u280b\u2800": 789, "\u2812\u2800\u282f": 790, "\u285e\u2813": 791, "\u280e\u2811\u2807\u280b\u2832\u2809\u2825\u2817\u280e\u2815\u2817\u2838\u2809\u2815\u2807": 792, "\u2807\u2815\u283a": 793, "\u2803\u2815\u2815\u2807": 794, "\u2883\u2891\u2891\u2802": 795, "\u281e\u2811\u282d\u281e\u2836": 796, "\u2838\u280a\u2819\u2836": 797, "\u283f\u2824": 798, "\u2811\u2807\u280e\u2811": 799, "\u282e\u280e\u281e\u2817\u2802\u2800": 800, "\u280d\u2811\u281d\u2825": 801, "\u281e\u2811\u282d": 802, "\u281e\u2811\u282d\u281e\u2800": 803, "\u281e\u2817\u2801\u281d": 804, "\u280f\u282d\u2806\u2800\u2800\u2800\u2800\u2800\u2800\u2800\u2800\u2800\u2800\u2800\u2800\u2800": 805, "\u2803\u2811": 806, "\u281f\u2825": 807, "\u2832\u281a": 808, "\u2819\u2815\u2809": 809, "\u283a\u2813": 810, "\u2847\u2801\u281d\u281b\u2825\u2801\u281b\u2811\u2832": 811, "\u284a\u281e\u2811\u280d": 812, "\u2824\u2812\u2800\u285e\u2815\u2805\u2811\u281d\u285e\u283d\u280f\u2811\u2832\u285e\u287d\u284f\u2851\u2802\u2800\u2824": 813, "\u283e\u2800\u2836\u2800\u285d\u2815\u281d\u2811": 814, "\u2804\u2802": 815, "\u283e\u2812\u2800\u2800\u2800\u2800\u2800\u2800\u2800\u2800\u2800\u2824\u2824\u2824": 816, "\u2809\u2815\u2825\u281d": 817, "\u280a\u280b\u280a\u2809\u2801\u281e\u280a\u2815\u281d": 818, "\u2801\u281e\u2815\u2817": 819, "\u282f\u2800\u2800\u2800\u2800\u2800\u2800\u2800\u2800\u2800\u2800\u2800\u2800\u2800\u2800\u2800\u2800\u2800": 820, "\u280f\u2817\u2811\u280b\u280a\u282d": 821, "\u281d\u2815\u2819\u2811\u2832": 822, "\u280e\u2809\u2807\u2838": 823, "\u280e\u2809\u2817\u280a\u280f": 824, "\u2811\u280e\u280e\u2801\u281b\u2811": 825, "\u2809\u2825\u2817\u2817": 826, "\u281e\u2815\u2838": 827, "\u285d\u285e": 828, "\u2849\u2815\u280d\u280f\u2807\u2811\u281e\u280a\u2815\u281d": 829, "\u2865\u281d": 830, "\u280b\u280b": 831, "\u2811\u282d\u281e": 832, "\u2800\u280b\u2815\u2817\u2800": 833, "\u2824\u2802\u2800\u2824\u2805\u2811\u283d\u283a\u2815\u2817\u2819\u2824\u2836\u2802\u2800\u2800\u2800\u2800\u2800\u2800\u2800\u2800\u2800\u2800\u2800\u2800\u2800\u2836\u2824": 834, "\u281e\u2801\u2817": 835, "\u2857\u2811\u2807": 836, "\u284d\u2811\u281d\u2825": 837, "\u2801\u281e\u2800": 838, "\u280f\u2825": 839, "\u280a\u2819\u2836\u2824": 840, "\u284f\u2817\u2815": 841, "\u2807\u2811\u281d\u2836": 842, "\u2838\u280e\u281e": 843, "\u2849\u2855\u285d": 844, "\u281e\u2801\u280e\u2805\u2832": 845, "\u2836\u2800\u2800\u2800\u2800\u2800": 846, "\u282f\u2800": 847, "\u2815\u2817\u2819\u2811\u2817": 848, "\u284e\u2811": 849, "\u283f\u2800\u2800\u2800\u2800\u2800\u2800\u2800\u2800\u2800\u2832": 850, "\u2817\u2811\u280f": 851, "\u280e\u2838": 852, "\u281d\u2825\u280d": 853, "\u281e\u2801": 854, "\u2881\u2812": 855, "\u2807\u2800": 856, "\u2812\u2800\u2855\u280f\u281e\u280a\u2815\u281d\u2801\u2807": 857, "\u2815\u2817\u281e": 858, "\u2823\u2819\u280a\u2827": 859, "\u2823\u280c\u2819\u280a\u2827": 860, "\u2823\u280c\u2819\u280a\u2827\u281c": 861, "\u2859\u2811": 862, "\u281d\u2811\u283a": 863, "\u284e\u2851": 864, "\u2859\u280a\u2809\u281e\u282e\u280e\u281e\u2817\u2802\u2800": 865, "\u284b\u2801\u2807\u280e\u2811": 866, "\u2824\u2812\u2800\u280e\u2811\u2807\u280b\u2832": 867, "\u284d\u2811\u281d\u2825\u284a\u281e\u2811\u280d": 868, "\u280a\u280b\u280a": 869, "\u280e\u2825": 870, "\u284a\u2819": 871, "\u2857\u2851": 872, "\u283f\u2821\u281d": 873, "\u2851\u2817": 874, "\u2825\u2817\u2801\u281e\u280a\u2815\u281d": 875, "\u2820\u2820": 876, "\u280b\u2815": 877, "\u2807\u280a\u280e\u281e": 878, "\u2893\u2824\u2819\u2815\u281e\u2800\u2803\u2817\u2801\u280a\u2807\u2807\u2811\u2800": 879, "\u280e\u280a\u281b\u281d": 880, "\u2857\u2811": 881, "\u2812\u2800\u2800\u2800\u2800\u2800\u2800\u2800\u2800\u2800\u2800\u2800\u2800\u2800\u2800\u2800\u2800\u2800\u2800\u2800\u2800\u2800": 882, "\u2819\u2825\u2817\u2801\u281e\u280a\u2815\u281d": 883, "\u2800\u2800\u2800\u2800\u2800\u2800\u2800\u2800\u2800\u280e\u2811\u2807\u280b\u2832": 884, "\u282b\u282f\u2881\u2812": 885, "\u2809\u2815\u281d\u2827\u2811\u2817\u280e\u2801\u281e\u280a\u2815\u281d": 886, "\u2819\u280a\u280e": 887, "\u2817\u2811\u2809": 888, "\u2809\u2815\u281d\u280e\u281e\u2800": 889, "\u2802\u2800\u2800\u2800\u2800\u2800\u2800\u2800\u2800\u2800\u2800\u2800\u2800\u2800\u2800\u2800\u2800\u2800\u2800\u2800\u2800\u2800\u2800\u2800\u2800\u2800": 890, "\u2812\u2800\u280e\u281e\u2817\u2802\u2800": 891, "\u2857\u284a": 892, "\u2812\u2800\u280a\u281d\u281e": 893, "\u2809\u2801\u2807": 894, "\u2815\u2825\u2817\u2809\u2811": 895, "\u2809\u2815\u2825\u281d\u281e": 896, "\u280e\u281e\u2817\u280a\u280f": 897, "\u282b\u282f\u289a": 898, "\u2801\u2817\u280a\u280b\u280a\u2809\u2801\u281e\u280a\u2815\u281d": 899, "\u281e\u2801\u2817\u281b\u2811\u281e": 900, "\u2809\u2815\u280d\u280d\u2801\u281d\u2819": 901, "\u281e\u281e\u280a\u281d\u281b": 902, "\u280e\u2809\u2817\u280a\u280f\u281e\u280a\u2815\u281d": 903, "\u280f\u2807\u2801\u283d": 904, "\u2801\u280e\u280e": 905, "\u2800\u281e\u2815\u2800": 906, "\u2812\u2800\u2800\u2800\u2800\u2800\u2800\u2800\u2800\u2800\u2800\u2800\u2800\u2800\u2817\u2811\u281e\u2825\u2817\u281d\u2800": 907, "\u2817\u2804": 908, "\u2836\u2821": 909, "\u280a\u2819\u2836": 910, "\u280a\u2809\u2815\u281d": 911, "\u2825\u280d\u2801\u281d": 912, "\u2801\u2809": 913, "\u2825\u281d\u2819": 914, "\u2800\u2881": 915, "\u2823\u2819\u280a\u2827\u2800\u2809\u2807\u2801\u280e\u280e\u2836\u2824": 916, "\u280d\u2811\u280e\u280e\u2801\u281b\u2811": 917, "\u2819\u2815\u2809\u2825\u280d": 918, "\u2841\u284e\u2849": 919, "\u2800\u2836\u2800\u289a": 920, "\u280e\u2800\u2800\u2800\u2800\u2800\u2800\u2800\u2800\u2800\u2800\u2800\u2800\u2800": 921, "\u2805\u283a": 922, "\u280e\u2815\u281d": 923, "\u2809\u2815\u281d\u281e\u2811\u282d\u281e": 924, "\u2817\u2811\u2800": 925, "\u280d\u280f\u281e": 926, "\u281e\u2811\u2800": 927, "\u2824\u2802\u2800\u2824\u281e\u283d\u280f\u2811\u2824\u2836\u2802\u2800\u2836\u2824": 928, "\u2824\u2824\u2824\u2800\u2800\u2800\u2800\u2800\u2800\u2800\u2800\u2800\u280a\u280b\u2800": 929, "\u2836\u2812\u2800\u2800\u2800\u2800\u2800\u2800\u2800\u2800\u2800\u2824\u2824\u2824": 930, "\u280a\u281b\u2813": 931, "\u2802\u2800\u2800\u2800\u2800\u2800\u2800\u2800\u2800\u2800\u2800\u2800\u2800\u2800\u2800\u2800\u2800": 932, "\u280e\u280f": 933, "\u281e\u2825\u2817\u281d\u2832": 934, "\u2819\u2815\u2809\u2825\u280d\u2811\u281d\u281e": 935, "\u2806\u2800\u2800\u2800\u2800\u2800\u2800\u2800\u2800\u2800\u2800\u2800\u2800\u2800\u2800\u2800\u2800\u2800": 936, "\u2836\u2800\u2800\u2800\u2800\u2800\u2800\u2800\u2800\u2800\u2800\u2800\u2800\u2800\u2800\u2800\u2800\u2800\u2800": 937, "\u2811\u281d\u280e": 938, "\u2811\u2807\u2807": 939, "\u284d\u2851": 940, "\u284e\u285e\u2841": 941, "\u2851\u2817\u2817\u2815\u2817": 942, "\u2811\u281d\u2809\u2815\u2819\u2811\u2817\u2832\u2811\u281d\u2809\u2815\u2819\u2811\u2836": 943, "\u280e\u281e\u2811\u280f": 944, "\u281d\u2815\u2819\u2811\u2838\u280a\u2819": 945, "\u2809\u2815\u281d\u281d": 946, "\u2817\u2811\u2801\u280d": 947, "\u280d\u2811\u281e\u2813": 948, "\u280e\u280f\u2811": 949, "\u2801\u2819\u2819": 950, "\u2807\u2811\u280d\u2811\u281d\u281e": 951, "\u2815\u280a\u281d": 952, "\u2801\u2807\u2800": 953, "\u285e\u2851": 954, "\u280e\u281e\u2817\u2812\u2800\u2800\u2800\u2800\u2800\u2800\u2800\u2800\u2800\u2824\u2824\u2824": 955, "\u282f\u2821\u281d\u2800\u2800\u2800\u2800": 956, "\u2811\u2819\u281b\u2811": 957, "\u280e\u2832\u2801\u280f\u280f\u2811\u281d\u2819\u2836": 958, "\u281e\u283d\u280f\u2811\u2824\u2812\u2800\u2824": 959, "\u2819\u2825\u2817\u2801\u281e\u280a\u2815\u281d\u2824\u2812\u2800": 960, "\u284a\u2855\u285d": 961, "\u2809\u2815\u280d\u280f\u2807\u2811\u281e\u280a\u2815\u281d": 962, "\u2803\u2817": 963, "\u2817\u281b": 964, "\u2832\u281e\u2811\u282d\u281e": 965, "\u2857\u2811\u2809": 966, "\u280e\u281e\u2801\u281e\u2825\u280e": 967, "\u284e\u281e\u2801\u281e\u2825\u280e": 968, "\u2843\u283d": 969, "\u281e\u2817\u283d": 970, "\u2800\u2800\u2800\u2800\u2800\u2800\u2800\u2800\u2800\u2800\u283c\u2800": 971, "\u2851\u281d\u2809\u2815\u2819\u2811": 972, "\u280a\u281d\u281e\u2811\u281d\u281e": 973, "\u280f\u2825\u281e\u2800": 974, "\u281e\u2824": 975, "\u2807\u2811\u2800": 976, "\u2825\u280e\u2811\u2817": 977, "\u2817\u2811\u2809\u2815\u2817\u2819": 978, "\u2809\u2825\u2817\u2817\u2811\u281d\u281e": 979, "\u2851\u2807\u2811\u280d\u2811\u281d\u281e": 980, "\u2809\u2811\u280e": 981, "\u2851\u282d": 982, "\u2815\u280b\u2800": 983, "\u2801\u281e\u2825\u2817\u2811": 984, "\u2811\u2819\u2800": 985, "\u281e\u283d": 986, "\u280e\u2811\u281e\u281e\u280a\u281d\u281b": 987, "\u281e\u281e\u280e": 988, "\u2800\u2800\u2800\u2808": 989, "\u280e\u2801\u2807\u2838": 990, "\u2812\u2800\u2824": 991, "\u2832\u2827\u2801\u2807\u2825\u2811": 992, "\u2800\u2800\u2800\u2800\u2800\u2804": 993, "\u2812\u2800\u280e\u281e\u2817\u2800\u2800\u2800\u2800\u2800": 994, "\u2851\u281d\u2809\u2815\u2819\u2811\u2817": 995, "\u280e\u281e\u2817\u2825": 996, "\u2838\u280f\u2801\u281e\u2813": 997, "\u284a\u2859\u2851": 998, "\u280b\u280a\u2807\u2811\u2838\u280a\u2819": 999, "\u2807\u280a\u281d\u2811\u280e\u282e": 1000, "\u280e\u2811\u2807\u280b\u2832\u2809\u2825\u2817\u280e\u2815\u2817\u2838\u2807\u280a\u281d\u2811": 1001, "\u2800\u280b\u2817\u2815\u280d\u2800": 1002, "\u285e\u285e": 1003, "\u2857\u2811\u280e": 1004, "\u2836\u2881": 1005, "\u2819\u2815\u2809\u2825\u280d\u2811\u281d\u281e\u2832\u281b\u2811\u281e": 1006, "\u2819\u2815\u2809\u2825\u280d\u2811\u281d\u281e\u2832\u281b\u2811\u281e\u2851\u2807\u2811\u280d\u2811\u281d\u281e": 1007, "\u2819\u2815\u2809\u2825\u280d\u2811\u281d\u281e\u2832\u281b\u2811\u281e\u2851\u2807\u2811\u280d\u2811\u281d\u281e\u2843\u283d": 1008, "\u2819\u2815\u2809\u2825\u280d\u2811\u281d\u281e\u2832\u281b\u2811\u281e\u2851\u2807\u2811\u280d\u2811\u281d\u281e\u2843\u283d\u284a\u2819": 1009, "\u2819\u2836": 1010, "\u2849\u2817\u2811": 1011, "\u2809\u2815\u281d\u2809\u2811\u280f": 1012, "\u2836\u2836\u2800\u2800\u2800\u2800\u2800\u2800\u2800\u2800\u2800\u2800\u2800\u2800\u2800": 1013, "\u2801\u281d\u2801\u2807\u283d\u2835": 1014, "\u281e\u283d\u280f\u2811\u2836": 1015, "\u280d\u2801\u281d": 1016, "\u2801\u280f\u280a": 1017, "\u2800\u2824\u2800": 1018, "\u280a\u2801\u2807": 1019, "\u2811\u281d\u2801\u2803\u2807\u2811": 1020, "\u2819\u2811\u2817\u280e\u281e": 1021, "\u2803\u2807\u2815": 1022, "\u280b\u2801\u2825\u2807\u281e": 1023, "\u280e\u2812\u2800\u2800\u2800\u2800\u2800\u2800\u2800\u2800\u2800\u2800\u2800\u2800\u2800": 1024, "\u2813\u280a\u280e\u281e": 1025, "\u2832\u281a\u2815\u280a\u281d": 1026, "\u285e\u2855": 1027, "\u2836\u2802\u2800\u2800\u2800\u2800\u2800\u2800\u2800\u2800\u2800\u2800\u2800\u2800\u2800": 1028, "\u284e\u2800": 1029, "\u280e\u2815\u2825\u2817\u2809\u2811": 1030, "\u2802\u2800\u2800\u2800\u2800\u2800\u2800\u2800\u2800\u2800\u2800\u2800\u2800\u2800\u2800\u2800\u2800\u2800\u2800\u2800\u2800\u2800\u2824": 1031, "\u2824\u2802\u2800\u2800\u2800\u2800\u2800\u2800\u2800\u2800\u2800\u2800\u2800\u2800\u2800\u2800\u2800\u2800\u2800\u2803\u2817\u2801\u280a\u2807\u2807\u2811\u2838": 1032, "\u2809\u2807\u2801\u2817\u280a\u280b\u280a\u2809\u2801\u281e\u280a\u2815\u281d": 1033, "\u2838\u281d\u2815\u2819\u2811": 1034, "\u2801\u2809\u281e\u280a\u2827\u2811\u2838": 1035, "\u2824\u2812\u2800\u285e\u2815\u2805\u2811\u281d\u285e\u283d\u280f\u2811\u2832\u2843\u2865\u284a\u2847\u285e\u284a\u285d\u2802\u2800\u2824": 1036, "\u2809\u2811\u280f\u281e\u280a\u2815\u281d": 1037, "\u280d\u2811\u281e\u2813\u2815\u2819": 1038, "\u280a\u281e\u280a\u2815\u281d": 1039, "\u2819\u2815\u2809\u2825\u280d\u2811\u281d\u281e\u2832\u281b\u2811\u281e\u2851\u2807\u2811\u280d\u2811\u281d\u281e\u2843\u283d\u284a\u2819\u2836\u2804": 1040, "\u280e\u281e\u2801\u2817\u281e": 1041, "\u282f\u2800\u2800\u2800\u2800\u2800\u2800\u2800\u2800\u2800\u2800\u2800\u2800\u2800\u2824": 1042, "\u2811\u282d\u2809\u2811\u280f": 1043, "\u2812\u2800\u280e\u281e\u2817\u2800\u2836\u2800": 1044, "\u2811\u281d\u280e\u280a\u281e\u283d": 1045, "\u2857\u2841": 1046, "\u2819\u2811\u280b\u2801\u2825\u2807\u281e": 1047, "\u2807\u2815\u283a\u2811\u2817": 1048, "\u282f\u2824\u281e\u283d\u280f\u2811\u2824\u2812\u2800\u2824": 1049, "\u2824\u2802\u2800\u2824\u2819\u2825\u2817\u2801\u281e\u280a\u2815\u281d\u2824\u2812\u2800": 1050, "\u2841\u281d\u283d": 1051, "\u2819\u2801\u281e\u2811\u281e\u280a\u280d\u2811": 1052, "\u2849\u2815\u280d\u280f\u2807\u2811\u281e\u280a\u2815\u281d\u2845": 1053, "\u2849\u2815\u280d\u280f\u2807\u2811\u281e\u280a\u2815\u281d\u2845\u280a\u281d\u2819": 1054, "\u2847\u2841": 1055, "\u2809\u2815\u2817": 1056, "\u280f\u2801\u2817\u2811\u281d\u281e": 1057, "\u281e\u281d": 1058, "\u2819\u280a\u2817\u2811": 1059, "\u280b\u280a\u281d": 1060, "\u2843\u2817\u2801\u280a\u2807\u2807\u2811\u2800": 1061, "\u2838\u2819\u2801\u281e\u2801": 1062, "\u280b\u2824\u282f": 1063, "\u2865\u285d": 1064, "\u2800\u2800\u2800\u2800\u2800\u2800\u2800\u2800\u2800\u2817\u2811\u281e\u2825\u2817\u281d\u2800": 1065, "\u2815\u280f\u2811\u281d": 1066, "\u2800\u2811\u2807\u280e\u2811\u2800": 1067, "\u284b\u280a\u2807\u2811": 1068, "\u2806\u2800\u2800\u2800\u2800\u2800\u2800\u2800\u2800\u2800\u283f\u2800\u2800\u2800\u2800\u2800\u2800\u2800\u2800\u2800\u2832": 1069, "\u2801\u2807\u2807\u2800": 1070, "\u2817\u281b\u2803\u2801": 1071, "\u2817\u281b\u2803\u2801\u2836": 1072, "\u2849\u2817\u2811\u2801\u281e\u2811\u2800": 1073, "\u2832\u280a\u2819": 1074, "\u2815\u2800": 1075, "\u281d\u2815\u283a": 1076, "\u2815\u2817\u283d\u2836": 1077, "\u280e\u2800\u2800\u2800\u2800\u2800\u2800\u2800\u2800\u2800": 1078, "\u284e\u2849\u2847": 1079, "\u280f\u2817\u2815\u280d\u280f\u281e": 1080, "\u2800\u2800\u2800\u2809\u2807\u2801\u280e\u280e\u2800": 1081, "\u280e\u2814": 1082, "\u280b\u280a\u2811\u2807": 1083, "\u280a\u281d\u280e\u2811\u2817": 1084, "\u283f\u2824\u2802\u2800\u2824": 1085, "\u280e\u2811\u2807\u280b\u2832\u2809\u2825\u2817\u280e\u2815\u2817\u2838\u2807\u280a\u281d\u2811\u2800": 1086, "\u2801\u280e\u281e": 1087, "\u2800\u2800\u2800\u283c\u2800": 1088, "\u280d\u2815\u2819\u2801\u2807\u280a\u281e\u283d": 1089, "\u2807\u2801\u281d\u281b": 1090, "\u2803\u2815\u2817\u2819\u2811\u2817": 1091, "\u2819\u280a\u280e\u280f\u2807\u2801\u283d": 1092, "\u280a\u281e\u283d\u2800": 1093, "\u2800\u2800\u2800\u2800\u2800\u2800\u2800\u2800\u2800\u2800\u2800\u2800\u2800\u2800\u2800\u2800\u2800\u2800\u2800\u2800\u2800\u2800\u2800\u2800\u2800\u2800\u2800\u2800\u2800\u2800": 1094, "\u280e\u2836\u2836": 1095, "\u280e\u281e\u2817\u2811\u2801\u280d": 1096, "\u281b\u2811\u281d\u2811\u2817": 1097, "\u2838\u2809\u2815\u2819\u2811": 1098, "\u2832\u281a\u2815\u280a\u281d\u2836": 1099, "\u2819\u2811\u2817\u280e\u281e\u2801\u281d\u2819": 1100, "\u2817\u2811\u280f\u2817\u2811\u280e": 1101, "\u2843\u2857\u2841": 1102, "\u2843\u2857\u2841\u284a\u2847": 1103, "\u2843\u2857\u2841\u284a\u2847\u2847\u2851": 1104, "\u280f\u2801\u280e\u280e": 1105, "\u2817\u2811\u280e\u2825\u2807\u281e\u2800\u2836\u2800": 1106, "\u2800\u2800\u2800\u2800\u2800\u2819\u2811\u280b\u2800": 1107, "\u2859\u280a\u2809\u281e\u282e\u280e\u281e\u2817\u2802\u2800\u2841\u281d\u283d": 1108, "\u2804\u2802\u2800\u2800\u2800\u2800\u2800\u2800\u2800\u2800\u2800\u2800\u2800\u2800\u2800": 1109, "\u2804\u2802\u2800\u2800\u2800\u2800\u2800\u2800\u2800\u2800\u2800\u2800\u2800\u2800\u2800\u2804": 1110, "\u280d\u2801\u2817\u2805": 1111, "\u2813\u2825\u280d\u2801\u281d": 1112, "\u2809\u2825\u2817\u2817\u2811\u281d\u281e\u2838": 1113, "\u280a\u281b\u2813\u2807\u280a": 1114, "\u2809\u2811\u2800": 1115, "\u2812\u2800\u2855\u280f\u281e\u280a\u2815\u281d\u2801\u2807\u282e\u280e\u281e\u2817": 1116, "\u2819\u280a\u2809\u281e": 1117, "\u280f\u2817\u2811\u280b": 1118, "\u280e\u281e\u2817\u2836": 1119, "\u2801\u281e\u2813": 1120, "\u2893\u2824\u2819\u2815\u281e\u2800\u2803\u2817\u2801\u280a\u2807\u2807\u2811": 1121, "\u2800\u2800\u2800\u2800\u2800\u2800\u283c\u2800": 1122, "\u2800\u2800\u2800\u2800\u2800\u2800\u2800\u2800\u2800\u2800\u2819\u2811\u280b\u2800": 1123, "\u2857\u2855": 1124, "\u2836\u2800\u2800\u2800\u2800\u2800\u2800\u2800\u2800\u2800\u2817\u2811\u281e\u2825\u2817\u281d\u2800": 1125, "\u2836\u2800\u2800\u2800\u2800\u2800\u2800\u2800\u2800\u2800\u2800\u2800\u2800\u2800\u2800\u2819\u2811\u280b\u2800": 1126, "\u280e\u2811\u281b": 1127, "\u2803\u2807\u2815\u2809\u2805": 1128, "\u281b\u2817\u2815\u2825\u280f": 1129, "\u2827\u2815\u280a\u2809\u2811\u2800": 1130, "\u2807\u2815\u281b\u281b\u2811": 1131, "\u2809\u2807\u2815": 1132, "\u2827\u2815\u280a\u2809\u2811\u2838": 1133, "\u2811\u281d\u2801\u2803\u2807\u2811\u2819": 1134, "\u289a\u2802": 1135, "\u280d\u2811\u2800": 1136, "\u280a\u281e\u2809\u2813": 1137, "\u280b\u2825\u281d\u2809\u281e\u280a\u2815\u281d\u2800": 1138, "\u2813\u280a\u280e\u281e\u2815\u2817\u283d": 1139, "\u280e\u281d": 1140, "\u2815\u283a": 1141, "\u2841\u284e\u2849\u284a": 1142, "\u2841\u284e\u2849\u284a\u284a": 1143, "\u2800\u2800\u2800\u2800\u283c\u2800": 1144, "\u2849\u285e": 1145, "\u284a\u285d\u285b": 1146, "\u280e\u280a\u281b\u281d\u2801\u281e\u2825\u2817\u2811": 1147, "\u2865\u2857": 1148, "\u2832\u281b\u2817\u2815\u2825\u280f": 1149, "\u281b\u2817\u2801\u280f\u2813\u2838\u280e\u281e": 1150, "\u2807\u280a\u281d\u2811\u280e\u282e\u280e\u2811\u2807\u280b\u2832\u2809\u2825\u2817\u280e\u2815\u2817\u2838\u2807\u280a\u281d\u2811": 1151, "\u2824\u2824\u2824\u2800": 1152, "\u281a\u280e\u2815\u281d": 1153, "\u2809\u2807\u2815\u280e\u2811": 1154, "\u2813\u2801\u280f\u281e\u280a\u2809\u2838": 1155, "\u2803\u2801\u2809\u2805\u281b\u2817\u2815": 1156, "\u2803\u2801\u2809\u2805\u281b\u2817\u2815\u2825\u281d\u2819": 1157, "\u283f\u2800\u2800\u2800\u2800\u2800\u2800\u2800\u2800\u2800\u2800\u2800\u2800\u2800\u2800\u2800\u2800\u2800\u2800": 1158, "\u2817\u2815\u2807\u2811": 1159, "\u283d\u281e\u2813": 1160, "\u2811\u281d\u281e\u2801\u281e\u280a\u2815\u281d": 1161, "\u284f\u285e": 1162, "\u280f\u2817": 1163, "\u2824\u2824\u2824\u2800\u2800\u2800\u2800\u2800\u2800\u2800\u2800\u2800\u2817\u2811\u281e\u2825\u2817\u281d\u2800": 1164, "\u282e\u2812": 1165, "\u2800\u2800\u2800\u2800\u2800\u2800\u2800\u2800\u2800\u2800\u2800\u2800\u2800\u2800\u2801\u280e\u283d\u281d\u2809\u2800\u2819\u2811\u280b\u2800": 1166, "\u281f\u2825\u2811": 1167, "\u2841\u285e\u2855\u2857": 1168, "\u2849\u2815\u280d\u280f\u2807\u2811\u281e\u280a\u2815\u281d\u2845\u280a\u281d\u2819\u2832": 1169, "\u2821\u280e\u282e": 1170, "\u283a\u282e": 1171, "\u280d\u2801\u281e\u2809\u2813\u2832\u281b\u2817\u2815\u2825\u280f": 1172, "\u2824\u2812\u2800\u285e\u2815\u2805\u2811\u281d\u285e\u283d\u280f\u2811\u2832\u285e\u287d\u284f\u2851\u2802\u2800\u2800\u2800\u2800\u2800\u2800\u2800\u2800\u2800\u2800\u2800\u2800\u2800\u2824": 1173, "\u2800\u280a\u281d": 1174, "\u280d\u2801\u2817\u281b\u280a\u281d": 1175, "\u2883\u2891\u2891\u2802\u2883\u2891\u2891\u2802": 1176, "\u2803\u281e\u281d": 1177, "\u2811\u280e\u2800": 1178, "\u2811\u2817\u283d": 1179, "\u2836\u2819\u2801\u281e\u2801": 1180, "\u2809\u2801\u281e": 1181, "\u2811\u2817\u2817": 1182, "\u2801\u2827\u2801": 1183, "\u2800\u2800\u2800\u2800\u2800\u2800\u2800\u2800\u2800\u280a\u280b\u2800": 1184, "\u2825\u281d\u2819\u2811\u2817\u280e\u281e\u2801\u281d\u2819": 1185, "\u2800\u2800\u2800\u2800\u2800\u2824": 1186, "\u2804\u2802\u2800\u285d\u2815\u281d\u2811": 1187, "\u284f\u2801\u281e\u2813": 1188, "\u2815\u2825\u281b\u2813": 1189, "\u2807\u280a\u281d\u2811\u2838\u281d\u2825\u280d": 1190, "\u282b\u282f\u289a\u2812": 1191, "\u2857\u2811\u2807\u2801\u281e\u280a\u2815\u281d\u280e\u2813\u280a\u280f": 1192, "\u2809\u2801\u2807\u2807\u2811": 1193, "\u2811\u281d\u281b\u280a\u281d": 1194, "\u280d\u2825\u2807\u281e": 1195, "\u2832\u2832\u2832": 1196, "\u2812\u2800\u2855\u280f\u281e\u280a\u2815\u281d\u2801\u2807\u282e\u280e\u281e\u2817\u283e\u2800\u2836\u2800\u285d\u2815\u281d\u2811": 1197, "\u2803\u2801\u2809\u2805\u281b\u2817\u2815\u2825\u281d\u2819\u2812\u2800": 1198, "\u281e\u2817\u2801\u281d\u280e": 1199, "\u2807\u2811\u281e": 1200, "\u280e\u280a\u281d\u281b\u2800": 1201, "\u280e\u2802\u2800": 1202, "\u2800\u2801\u280e\u2800": 1203, "\u2800\u2836\u2836\u2800\u2824": 1204, "\u2836\u2832": 1205, "\u2815\u2825\u281e\u280f\u2825\u281e\u2838": 1206, "\u2800\u2801\u281d\u2819\u2800": 1207, "\u2809\u2807\u280a": 1208, "\u2803\u283d": 1209, "\u2811\u281d\u2825\u280d": 1210, "\u2809\u2801": 1211, "\u2809\u2811\u2807\u2807": 1212, "\u2801\u2809\u2805": 1213, "\u2836\u2800\u2881": 1214, "\u2836\u2812\u2800\u2800\u2800\u2800\u2800\u2800\u2800\u2800\u2800\u2800\u2800\u2800\u2800": 1215, "\u2836\u2800\u2800\u2800\u2800\u2800\u2800\u2800\u2800\u2800\u2800\u2800\u2800\u2800\u2800\u2800\u2800\u2800\u2800\u2800\u2800\u2800": 1216, "\u2817\u2800\u2836\u2800": 1217, "\u2824\u2800\u2800\u2800\u2800\u2800\u2800\u2800\u2800\u2800\u2800\u2800\u2800\u2800": 1218, "\u2843\u2817\u2801\u280a\u2807\u2807\u2811\u2893\u285e\u2813": 1219, "\u280e\u2811\u281b\u280d\u2811\u281d\u281e": 1220, "\u280b\u2801\u2809\u281e": 1221, "\u280a\u281e\u2811\u280d\u2832": 1222, "\u285e\u2801\u280e\u2805": 1223, "\u2817\u2811\u2832": 1224, "\u2819\u2811\u280e\u2809\u2817\u280a\u280f\u281e\u280a\u2815\u281d": 1225, "\u2836\u2812\u2800\u2800\u2800\u2800\u2800\u2824\u2824\u2824": 1226, "\u283a\u2811": 1227, "\u281b\u281b": 1228, "\u281f\u2825\u2811\u2817\u283d": 1229, "\u2800\u282e\u2800": 1230, "\u280a\u281d\u280f\u2825\u281e\u2838": 1231, "\u2809\u2811\u280e\u280e": 1232, "\u283f\u2824\u2836": 1233, "\u2836\u2800\u280a\u280b\u2800": 1234, "\u2817\u2811\u280f\u2817\u2811\u280e\u2811\u281d\u281e\u2801\u281e\u280a\u2815\u281d": 1235, "\u2819\u2801\u281e\u2801\u2809\u2807\u2801\u280e\u280e\u2800": 1236, "\u285e\u2853": 1237, "\u280a\u281d\u280a\u281e\u2838\u2838": 1238, "\u2841\u285e\u2851": 1239, "\u2804\u280e\u2800": 1240, "\u283e\u2800": 1241, "\u2843\u2817\u2801\u280a\u2807\u2807\u2811\u2893\u2851\u281d\u2809\u2815\u2819\u2811\u2817": 1242, "\u2800\u2800\u2800\u2800\u2800\u2800\u2800\u2800\u2800\u2800\u2800\u2800\u2800\u2800\u2819\u2811\u280b\u2800\u281b\u2811\u281e\u2838": 1243, "\u2819\u2801\u281e\u2811\u281e\u280a\u280d\u2811\u2832": 1244, "\u281f\u2825\u2811\u280e\u281e": 1245, "\u282b\u282f\u2883": 1246, "\u282b\u282f\u2883\u2812": 1247, "\u280f\u2817\u2815\u280f": 1248, "\u2843\u2817\u2801\u280a\u2807\u2807\u2811\u284d\u2811\u281d\u2825\u284a\u281e\u2811\u280d": 1249, "\u2811\u281d\u2809\u2811": 1250, "\u2859\u2855": 1251, "\u284e\u283d": 1252, "\u2883\u289a": 1253, "\u2836\u2806\u2800\u2800\u2800\u2800\u2800\u2800\u2800\u2800\u2800\u2800\u2800\u2800\u2800": 1254, "\u2811\u281d\u2800": 1255, "\u280e\u2800\u2836\u2800\u282e\u283e": 1256, "\u280b\u2811": 1257, "\u280d\u2815": 1258, "\u280e\u281e\u2801\u281e\u2811": 1259, "\u2824\u2812\u2800\u281e\u2825\u2817\u281d\u2832": 1260, "\u2809\u2815\u281d\u2809\u2811\u280f\u281e\u280e": 1261, "\u2811\u282d\u2809\u2811\u280f\u281e\u2800": 1262, "\u2836\u280b\u2824": 1263, "\u285b\u2811\u281d\u2811\u2817": 1264, "\u2809\u2807\u280a\u2811\u281d\u281e": 1265, "\u2803\u2811\u2817": 1266, "\u2800\u2800\u2800\u2800\u2800\u2800\u2800\u2800\u2800\u2800\u2819\u2811\u280b\u2800\u2838\u2838": 1267, "\u2817\u2811\u2801\u2805": 1268, "\u2841\u2857": 1269, "\u2801\u2817\u281b": 1270, "\u287a\u2813": 1271, "\u2812\u2800\u280e\u281e\u2817\u2800\u2836\u2800\u2824": 1272, "\u280a\u280e\u280f\u2811\u2817": 1273, "\u2843\u2817\u2801\u280a\u2807\u2807\u2811\u2893\u285e\u2813\u2815\u2825\u281b\u2813\u281e": 1274, "\u281e\u2813\u2815\u2825\u281b\u2813": 1275, "\u2849\u2855\u285d\u284e\u285e\u2841": 1276, "\u2812\u2812\u2812\u2812": 1277, "\u280e\u2811\u2807\u280b\u2832\u281b\u2817\u2801\u280f\u2813": 1278, "\u280e\u2801\u2807\u2824": 1279, "\u2857\u2811\u280e\u280f\u2815\u281d\u280e\u2811": 1280, "\u2807\u2815\u281b\u281b\u2811\u2817\u2832": 1281, "\u280a\u281d\u280b\u2815": 1282, "\u280d\u2801\u2817\u281b\u280a\u281d\u2824": 1283, "\u2825\u280e\u281e": 1284, "\u2800\u280e": 1285, "\u2819\u280a\u2817\u2811\u2809\u281e\u280a\u2815\u281d": 1286, "\u2801\u281d\u281e": 1287, "\u2857\u2811\u2809\u2815\u2817\u2819": 1288, "\u2857\u2811\u2809\u2815\u2817\u2819\u280a\u281d\u281b": 1289, "\u2849\u2815\u281d\u281e": 1290, "\u280e\u281e\u2817\u280a\u281d\u281b": 1291, "\u280e\u2800\u280a\u281d\u2800": 1292, "\u280e\u2800\u2836\u2800\u282e": 1293, "\u2815\u2825\u2800": 1294, "\u283d\u281e\u2813\u2815\u281d": 1295, "\u2803\u2825\u280a\u2807": 1296, "\u2836\u2812\u2800\u2800\u2800\u2800\u2800\u2800\u2800\u2800\u2800": 1297, "\u280e\u2811\u2807\u2811": 1298, "\u281e\u2811\u2819": 1299, "\u2823\u2800": 1300, "\u2838\u2803\u2817\u2801\u280a\u2807\u2807\u2811": 1301, "\u283e\u2812\u2800\u2800\u2800\u2800\u2800\u2800\u2800\u2800\u2800\u2824\u2824\u2824\u285b\u2811\u281e\u2800": 1302, "\u280b\u2815\u2817\u280d\u2801\u281e": 1303, "\u2800\u2800\u2800\u2800\u2800\u2800\u2800\u2800\u2800\u2800\u2800\u2800\u2800\u2800\u2800\u2800\u2800\u2800\u2800\u2800\u2800\u2800\u2800\u2800\u2800\u2800\u283c\u2800": 1304, "\u2827\u280a\u2803\u2817": 1305, "\u2841\u281d\u2801\u2807\u283d\u2835": 1306, "\u2849\u2855\u285d\u284e\u285e\u2841\u285d\u285e": 1307, "\u2809\u2801\u2807\u2807": 1308, "\u280f\u2817\u2815\u280f\u2811\u2817\u281e\u280a\u2811\u280e\u2836": 1309, "\u2809\u2825\u2817\u280e\u2815\u2817\u2838\u2807\u280a\u281d\u2811": 1310, "\u281e\u281e\u280e\u2838": 1311, "\u280a\u280b\u280a\u2811\u2819": 1312, "\u2809\u2815\u2807\u2815\u2817": 1313, "\u2809\u2813\u2811\u2809": 1314, "\u2809\u2813\u2811\u2809\u2805\u2811": 1315, "\u280c\u2801\u280f\u280a": 1316, "\u280c\u2801\u280f\u280a\u280c": 1317, "\u282f\u2800\u2800\u2800\u2800\u2800\u2800\u2800\u2800\u2800\u2800\u2800\u2800\u2800\u2800\u2800\u2800\u2800\u2800\u2800\u2800\u2800": 1318, "\u2800\u2800\u2800\u2800\u2800\u2800\u2800\u2800\u2800\u2800\u2800\u2800\u2800\u280a\u280b\u2800": 1319, "\u288b\u2899": 1320, "\u2809\u2817\u2811\u2801\u281e\u2811\u2838": 1321, "\u280e\u2811\u281e\u281e\u280a\u281d\u281b\u280e\u2832": 1322, "\u281e\u280e\u2800": 1323, "\u2825\u2807\u2811": 1324, "\u2841\u2843": 1325, "\u2893\u2838": 1326, "\u2800\u2800\u2800\u2800\u2800\u2800\u2800\u2800\u2800\u2800\u2800\u2800\u2800\u2800\u2819\u2811\u280b\u2800\u2838": 1327, "\u280f\u2817\u280a\u281d\u281e": 1328, "\u2800\u2800\u2800\u2800\u2800\u2800\u2800\u2800\u2800\u2800\u2800\u2800\u2800\u2800\u2800\u2800\u2800\u2800\u2800\u2800\u2800\u2800\u283c\u2800": 1329, "\u2849\u2851": 1330, "\u2849\u2855": 1331, "\u2836\u2802\u2800\u2800\u2800\u2800\u2800\u2800\u2800\u2800\u2800\u2800\u2800\u2800\u2800\u2800\u2800\u2800\u2800": 1332, "\u2849\u2807": 1333, "\u282d\u2800": 1334, "\u280f\u2807\u280a\u281e": 1335, "\u2802\u2800\u2800\u283c\u2800": 1336, "\u280f\u2815\u280e": 1337, "\u281e\u2813\u2811\u280e": 1338, "\u283d\u281d\u281e\u2801": 1339, "\u2807\u280a\u281d\u2811\u2836": 1340, "\u2836\u2817\u2804": 1341, "\u2832\u280e\u281e\u2817\u280a\u280f": 1342, "\u2819\u2801\u281e\u2811\u281e\u280a\u280d\u2811\u2832\u281d\u2815\u283a": 1343, "\u281b\u2817\u2801\u280f\u2813\u2838\u280e\u281e\u2815\u2817\u2811": 1344, "\u280f\u2807\u2801\u281d": 1345, "\u2820\u2820\u2820": 1346, "\u281e\u2811\u282d\u281e\u2838\u2807\u2801\u2803\u2811\u2807": 1347, "\u280e\u2801\u2827": 1348, "\u2803\u2817\u2801\u280a\u2807\u2807\u2811\u2838\u280a\u2819": 1349, "\u284a\u281d\u280f\u2825\u281e": 1350, "\u280e\u2811\u281e": 1351, "\u2814\u2800": 1352, "\u280e\u280a\u2835": 1353, "\u280b\u2815\u281d": 1354, "\u280b\u2815\u281d\u281e\u2824": 1355, "\u280e\u281e\u2801\u281e\u2825": 1356, "\u2807\u2801": 1357, "\u282e\u2800": 1358, "\u280f\u2807\u2801\u2809\u2811": 1359, "\u283f\u2802\u2800\u2800\u2800\u2800\u2800\u2800\u2800\u2800\u2800\u2800\u2800\u2800\u2800\u2800\u2800\u2800\u2800\u2800\u2800\u2800\u2800": 1360, "\u2800\u2800\u2800\u2800\u2800\u2800\u2800\u2800\u2800\u2800\u2800\u2800\u2800\u2800\u2800\u2800\u2800\u2800\u2800\u2800\u2800\u2800\u2817\u2811\u281e\u2825\u2817\u281d\u2800": 1361, "\u281b\u2811\u281d\u2811\u2817\u2801\u281e\u2811": 1362, "\u2841\u2819": 1363, "\u2815\u2825\u281e\u280f\u2825\u281e\u2838\u280f\u2817\u2811\u280b": 1364, "\u2841\u280e": 1365, "\u2800\u2800\u2800\u2800\u2800\u2800\u2800\u2800\u2800\u2824": 1366, "\u2832\u2817": 1367, "\u280a\u281d\u2805": 1368, "\u2819\u2801\u281e\u2801\u2809\u2807\u2801\u280e\u280e\u2800\u2809\u2807\u2801\u280e\u280e\u2800": 1369, "\u2803\u2817\u2811\u2801\u2805": 1370, "\u280e\u280f\u2811\u2809": 1371, "\u2836\u2800\u2824\u2800": 1372, "\u2804\u2802\u2800\u285d\u2815\u281d\u2811\u2836\u2802\u2800\u2800\u2800\u2800\u2800\u2800\u2800\u2800\u2800\u2800\u2800\u2800\u2800\u2800\u2800\u2800\u2800": 1373, "\u2804\u2802\u2800\u285d\u2815\u281d\u2811\u2836\u2802\u2800\u2800\u2800\u2800\u2800\u2800\u2800\u2800\u2800\u2800\u2800\u2800\u2800\u2800\u2800\u2800\u2800\u2836\u2804": 1374, "\u2811\u281d\u2809\u2815\u2819\u2811\u2817\u2800\u2836\u2800": 1375, "\u2800\u2836\u2800\u285e\u2817\u2825\u2811": 1376, "\u281e\u2813\u2815\u2825\u281b\u2813\u281e\u2800": 1377, "\u2809\u2815\u281d\u281e\u2811\u281d\u281e\u2836": 1378, "\u2824\u2812\u2800\u289a\u2832": 1379, "\u2811\u281d\u2809\u2815\u2819\u2811\u2817\u2832\u2811\u281d\u2809\u2815\u2819\u2811\u2836\u2824": 1380, "\u283d\u281d\u281e\u2813\u2811\u280e": 1381, "\u280a\u280f\u280f\u2811": 1382, "\u280b\u280a\u2811\u2807\u2819\u2836": 1383, "\u280b\u280a\u2811\u2807\u2819\u2836\u2819\u2811\u280b\u2801\u2825\u2807\u281e": 1384, "\u280b\u280a\u2811\u2807\u2819\u2836\u2819\u2811\u280b\u2801\u2825\u2807\u281e\u2838": 1385, "\u280b\u280a\u2811\u2807\u2819\u2836\u2819\u2811\u280b\u2801\u2825\u2807\u281e\u2838\u280b\u2801\u2809\u281e": 1386, "\u280b\u280a\u2811\u2807\u2819\u2836\u2819\u2811\u280b\u2801\u2825\u2807\u281e\u2838\u280b\u2801\u2809\u281e\u2815\u2817\u283d\u2836": 1387, "\u2809\u2817\u2811\u2801\u281e\u2811\u2819\u2838": 1388, "\u284e\u283d\u280d\u2803\u2815\u2807": 1389, "\u2857\u2811\u2807\u2801\u281e\u280a\u2815\u281d": 1390, "\u2819\u2811\u280f": 1391, "\u2817\u2811\u2807\u2838\u281e\u283d\u280f\u2811": 1392, "\u2802\u2800\u2800\u2800\u2800\u2800": 1393, "\u2812\u2800\u2800\u2800\u2800\u2800": 1394, "\u284a\u2800": 1395, "\u2803\u2815\u2817\u2819\u2811\u2817\u2824": 1396, "\u2817\u2801\u2819\u280a": 1397, "\u2809\u2815\u2807\u2815\u2817\u2812\u2800": 1398, "\u280d\u2801\u282d": 1399, "\u2800\u282f\u2800\u2800\u2800\u2800\u2800\u2800\u2800\u2800\u2800\u2800\u2800\u2800\u2800": 1400, "\u280a\u2835\u2811": 1401, "\u2825\u281d\u2805": 1402, "\u2809\u2813\u2801": 1403, "\u2809\u2813\u2801\u2817\u2801\u2809": 1404, "\u2809\u2813\u2801\u2817\u2801\u2809\u281e\u2811\u2817": 1405, "\u2804\u2804": 1406, "\u282f\u2800\u2800\u2800\u2800\u2800\u2800\u2800\u2800\u2800\u2800\u2800\u2800\u2800\u2800\u2800\u2800\u2800\u2824": 1407, "\u280b\u280a\u2819": 1408, "\u2841\u2819\u2819\u2800": 1409, "\u280e\u2824\u2812\u2800": 1410, "\u2824\u2802\u2800\u2824\u2824": 1411, "\u280e\u2809\u2807\u2838\u2817\u2811\u280e\u2825\u2807\u281e": 1412, "\u2825\u281d\u2819\u2811\u2817\u280e\u281e\u2801\u281d\u2819\u280a\u281d\u281b": 1413, "\u281e\u2817\u2801": 1414, "\u2809\u2817\u280a\u280f": 1415, "\u2841\u2867": 1416, "\u2809\u280a": 1417, "\u285d\u2811": 1418, "\u2800\u2800\u2800\u2808\u2819\u2801\u281e\u2801\u2809\u2807\u2801\u280e\u280e\u2800\u2809\u2807\u2801\u280e\u280e\u2800": 1419, "\u280e\u281e\u2801\u281d": 1420, "\u2857\u2855\u284d": 1421, "\u2849\u2853": 1422, "\u284d\u284f": 1423, "\u280d\u2801\u280f": 1424, "\u2832\u280e\u280f\u2807\u280a\u281e": 1425, "\u280d\u2815\u2819\u2811\u2807": 1426, "\u2832\u280a\u280e": 1427, "\u2827\u280a\u2803\u2817\u2801\u281e\u2811": 1428, "\u280d\u2801\u2817\u2805\u2811\u2817": 1429, "\u280e\u281d\u280a\u280f\u280f\u2811": 1430, "\u2811\u2817\u2817\u2815\u2817\u2838": 1431, "\u2865\u285d\u2849\u285e": 1432, "\u2849\u2847\u2841": 1433, "\u284f\u2817\u2815\u281a\u2811\u2809\u281e": 1434, "\u2809\u2825\u2817\u280e\u2815\u2817\u2838\u2809\u2815\u2807": 1435, "\u2807\u280a\u281d\u2811\u280e\u282e\u280e\u2811\u2807\u280b\u2832\u2809\u2825\u2817\u280e\u2815\u2817\u2838\u2807\u280a\u281d\u2811\u283e": 1436, "\u284d\u2815\u2819\u2811": 1437, "\u2801\u2819\u2811\u2817": 1438, "\u280a\u281d\u280f\u2825\u281e\u2800": 1439, "\u280f\u2801\u2819\u2819": 1440, "\u280f\u2801\u2819\u2819\u280a\u281d\u281b": 1441, "\u2812\u2800\u280b": 1442, "\u2867\u2815\u280a\u2809": 1443, "\u2819\u280a\u2801": 1444, "\u2804\u2800": 1445, "\u2817\u2811\u280e\u280f\u2815\u281d": 1446, "\u2807\u2815\u2803": 1447, "\u2806\u2800\u2800\u2800\u2800\u2800\u2800\u2800\u2800\u2800\u2800\u2800\u2800\u2800\u2800\u2800\u2800\u2800\u2800\u2800\u2800\u2800": 1448, "\u2845\u2811": 1449, "\u280e\u2813\u2815\u2817\u281e": 1450, "\u2832\u280f\u2815": 1451, "\u2836\u2836\u2800\u2800\u2800\u2800\u2800\u2800\u2800\u2800\u2800\u2800\u2800\u2800\u2800\u2800\u2800\u2800\u2800\u2800": 1452, "\u280e\u2811\u280e\u2800": 1453, "\u2804\u2802\u2800\u2800\u2800\u2800\u283c\u2800": 1454, "\u2809\u2801\u281e\u2811": 1455, "\u2809\u2801\u281e\u2811\u281b": 1456, "\u2800\u2800\u2800\u2800\u2800\u2800\u2800\u2800\u2800\u280b\u2815\u2817\u2800": 1457, "\u2802\u2800\u2807\u2801\u281d\u281b\u2825\u2801\u281b\u2811": 1458, "\u2811\u2807\u280e\u2811\u2812\u2800\u2800\u2800\u2800\u2800\u2800\u2800\u2800\u2800\u2800\u2800\u2800\u2800\u2800\u2800\u2800\u2800": 1459, "\u2802\u2800\u2800\u2800\u2800\u2800\u2800\u2800\u2800\u2800\u2815\u2817\u2819\u2836\u2804": 1460, "\u2832\u280e\u281e\u2801\u2817": 1461, "\u2809\u2817\u2811\u2801\u281e\u2811\u2819\u2838\u2801\u281e": 1462, "\u280a\u281e\u2811\u280d\u2838\u281e\u283d\u280f\u2811": 1463, "\u2813\u280a\u281b\u2813\u2807\u280a": 1464, "\u2832\u281b\u2811\u281e\u2836\u2804": 1465, "\u284d\u2815\u2819": 1466, "\u2855\u2825\u281e": 1467, "\u2813\u2811\u2801\u2819\u2811\u2817": 1468, "\u2801\u2825\u281e": 1469, "\u2807\u2811\u2824": 1470, "\u2891\u289a": 1471, "\u2809\u2815\u2807\u2815\u2817\u2812\u2800\u283c": 1472, "\u2801\u2809\u281e\u280a\u2827\u2811\u2800": 1473, "\u2803\u2801\u2809\u2805\u281b\u2817\u2815\u2825\u281d\u2819\u2812\u2800\u2817\u281b\u2803\u2801\u2836": 1474, "\u281e\u2815\u281b\u281b": 1475, "\u284e\u280f\u2811": 1476, "\u2800\u2836\u2800\u280b": 1477, "\u2849\u2815\u281d\u281e\u2811\u281d\u281e": 1478, "\u2800\u2800\u2800\u2800\u2800\u2800\u2800\u2800\u2800\u2800\u2800\u2800\u2800\u2800\u2800\u2800\u2800\u2800\u2800\u2800\u2800\u2800\u2800\u2800\u2800\u2800\u2800\u2800\u2800\u2800\u2800\u2800\u2800\u2800": 1479, "\u281d\u2811\u283a\u2800": 1480, "\u280e\u2813\u2815\u2817\u281e\u2809": 1481, "\u2817\u2801\u280a": 1482, "\u2851\u282d\u2809\u2811\u280f\u281e\u280a\u2815\u281d": 1483, "\u2811\u2809\u2813": 1484, "\u280d\u2801\u281d\u281e\u280a\u2809": 1485, "\u2809\u2807\u2825": 1486, "\u2809\u2807\u2825\u2819\u2811": 1487, "\u2841\u280e\u283d\u281d\u2809": 1488, "\u2836\u2800\u2801\u280e\u2800": 1489, "\u2809\u2815\u280d\u280f\u2807\u2811": 1490, "\u2800\u2800\u2800\u2800\u2800\u2800\u2800\u2800\u2800\u2800\u2819\u2811\u280b\u2800\u2838\u2838\u280a\u281d\u280a\u281e\u2838\u2838": 1491, "\u2819\u2811\u280b": 1492, "\u280a\u280d\u280f\u2815\u2817\u281e": 1493, "\u280e\u281e\u2817\u2825\u2809\u281e": 1494, "\u2817\u2801\u2809\u281e": 1495, "\u285d\u2865": 1496, "\u2836\u280e\u2811\u2807\u280b\u2802\u2800\u281e\u2811\u282d\u281e": 1497, "\u2836\u2809\u2815\u2819\u2811": 1498, "\u2836\u2804\u2802\u2800": 1499, "\u2825\u281e\u2811": 1500, "\u280b\u280b\u2811\u2817": 1501, "\u2853\u2801\u280f\u281e\u280a\u2809": 1502, "\u2812\u2800\u2800\u2800\u2800\u2800\u2800\u2800\u2800\u2800\u2800\u2800\u2800\u2800\u283c\u2800": 1503, "\u2801\u281e\u280a\u2815\u281d\u2800": 1504, "\u2815\u2817\u2811\u2800": 1505, "\u2800\u2800\u2800\u2800\u2800\u2800\u2800\u2800\u2800\u2800\u2800\u2800\u2800\u2800\u2808": 1506, "\u280a\u281d\u281e\u2811\u281d\u280e\u280a\u281e\u283d": 1507, "\u2807\u2811\u281d\u2836\u280e\u2811\u2807\u280b\u2832": 1508, "\u2832\u280e\u281e\u2801\u2817\u281e\u280e": 1509, "\u2832\u280e\u281e\u2801\u2817\u281e\u280e\u283a\u280a\u281e\u2813": 1510, "\u284a\u2849": 1511, "\u283f\u2802\u2800\u2800\u2800\u2800\u2800\u2800\u2800\u2800\u2800\u2800\u2800\u2800\u2800\u2800\u2800\u2800\u2800\u2800\u2800\u2800\u2800\u282f\u2824\u281e\u283d\u280f\u2811\u2824\u2812\u2800\u2824": 1512, "\u280e\u2813\u2815\u283a": 1513, "\u280b\u280a\u2807\u2811\u2832": 1514, "\u2838\u2807\u2815\u283a\u2811\u2817": 1515, "\u280d\u2811\u280e": 1516, "\u284d\u2811\u281d\u2825\u284a\u281e\u2811\u280d\u285e\u283d\u280f\u2811\u2832": 1517, "\u281d\u2815\u2819\u2811\u2838\u281e\u283d\u280f\u2811": 1518, "\u280a\u280b\u280a\u2811\u2819\u2800": 1519, "\u281e\u283d\u280f": 1520, "\u2825\u281e\u281e": 1521, "\u281e\u280a\u281e": 1522, "\u289a\u2832\u289a": 1523, "\u2801\u2805": 1524, "\u280e\u280a\u2835\u2811": 1525, "\u280b\u280a\u2807": 1526, "\u280a\u281e\u2811": 1527, "\u2881\u289a\u289a": 1528, "\u2824\u2800\u280a\u2819\u2836\u2824": 1529, "\u2807\u2801\u2803\u2811\u2807\u281c": 1530, "\u2817\u2811\u280e\u280f\u2815\u281d\u280e\u2811\u2800\u2836\u2800\u2801\u283a\u2801\u280a\u281e\u2800": 1531, "\u2801\u280d\u2811": 1532, "\u2845\u2811\u283d": 1533, "\u280f\u2817\u2815\u2827\u280a": 1534, "\u280e\u2809\u2817\u280a": 1535, "\u285b\u2811\u281d\u2811\u2817\u2801\u281e\u2811\u2800": 1536, "\u2817\u2811\u280e\u280f\u2815\u281d\u280e\u2811\u2832": 1537, "\u281e\u2811\u282d\u281e\u2838\u281e\u2815\u2838": 1538, "\u281e\u2813\u280a\u281d\u2805": 1539, "\u280e\u2800\u280b\u2815\u2817\u2800": 1540, "\u284e\u285f": 1541, "\u284e\u285f\u2847": 1542, "\u2825\u280f\u2807\u2811": 1543, "\u2851\u281d\u2825\u280d": 1544, "\u285e\u2855\u2838": 1545, "\u2836\u280e\u2811\u2807\u280b\u2836\u2812\u2800\u2800\u2800\u2800\u2800\u2800\u2800\u2800\u2800": 1546, "\u2811\u281d\u2819\u280e": 1547, "\u2841\u2843\u2847\u2851": 1548, "\u283f\u2800\u282f": 1549, "\u2812\u2800\u280e\u281e\u2817\u2800\u2836\u2800\u2824\u2824": 1550, "\u2811\u282d\u280a\u280e\u281e": 1551, "\u280f\u2817\u2815\u280f\u2811\u2817\u281e\u283d": 1552, "\u2836\u280e\u2811\u2807\u280b\u2836\u2812\u2800\u2800\u2800\u2800\u2800\u2800\u2800\u2800\u2800\u2824\u2824\u2824": 1553, "\u2812\u2800\u2800\u2800\u2800\u2800\u2800\u2800\u2800\u2800\u2800\u2800\u2800\u2800\u280a\u280b\u2800": 1554, "\u2801\u2825\u280e\u2811": 1555, "\u280a\u281d\u281e\u2811\u281d\u280e\u280a\u281e\u283d\u2824\u2812\u2800\u289a\u2832": 1556, "\u2803\u283d\u2800": 1557, "\u2838\u2813\u280a\u280e\u281e\u2815\u2817\u283d": 1558, "\u281e\u2813\u2815\u2825\u281b\u2813\u281e\u2832": 1559, "\u2836\u282e": 1560, "\u2827\u280a\u280e": 1561, "\u280d\u2801\u281e\u2809\u2813\u2832\u281b\u2817\u2815\u2825\u280f\u2836\u2881": 1562, "\u2802\u2800\u2800\u2800\u2800\u2800\u2800\u2800\u2800\u2800\u2800\u2800\u2800\u2800\u283c\u2800": 1563, "\u2824\u2812\u2800\u285e\u2815\u2805\u2811\u281d\u285e\u283d\u280f\u2811\u2832\u2843\u2865\u284a\u2847\u285e\u284a\u285d\u2802\u2800\u2800\u2800\u2800\u2800\u2800\u2800\u2800\u2800\u2800\u2800\u2800\u2800\u2824": 1564, "\u2824\u2824\u2824\u2800\u2800": 1565, "\u281e\u283d\u280f\u280a\u281d\u281b\u2800": 1566, "\u281e\u283d\u280f\u280a\u281d\u281b\u2800\u280a\u280d\u280f\u2815\u2817\u281e\u2800": 1567, "\u280a\u2819\u281b\u2811": 1568, "\u2855\u2825\u281e\u280f\u2825\u281e": 1569, "\u280e\u2800\u2836": 1570, "\u2802\u2800\u2803\u2817\u2801\u280a\u2807\u2807\u2811": 1571, "\u281e\u2811\u2817\u280b\u2801": 1572, "\u281e\u2811\u2817\u2806\u2800\u2800\u2800\u2800\u2800\u2800\u2800\u2800\u2800\u2800\u2800\u2800\u2800": 1573, "\u2801\u2809\u2811": 1574, "\u2813\u2815": 1575, "\u2800\u2836\u2800\u2804": 1576, "\u2841\u2807": 1577, "\u2836\u2800\u282f\u2800\u2800\u2800\u2800\u2800\u2800\u2800\u2800\u2800\u2800\u2800\u2800\u2800\u2800\u2800\u2800\u2800": 1578, "\u280e\u2813\u2815\u2817\u281e\u2809\u2825\u281e": 1579, "\u2813\u281e\u281e": 1580, "\u281e\u2813\u280a\u280e\u2800": 1581, "\u2817\u2801\u2809\u2805\u2811": 1582, "\u2807\u2815\u2801\u281e": 1583, "\u2827\u2801\u2817": 1584, "\u2819\u2811\u2807\u2811": 1585, "\u2801\u280d\u280f\u2807\u2811": 1586, "\u281c\u2800\u289a": 1587, "\u2827\u2811\u2817\u281e\u2800": 1588, "\u2812\u2800\u2803\u2815\u2815\u2807": 1589, "\u281e\u2836": 1590, "\u2803\u2815\u2815\u2807\u2812\u2800\u2800\u2800\u2800\u2800\u2800\u2800\u2800\u2800\u2824\u2824\u2824": 1591, "\u2813\u2801\u280f\u281e\u280a\u2809\u2800": 1592, "\u280f\u2801\u2825\u280e\u2811": 1593, "\u280f\u2817\u2815\u2809\u2811\u280e\u280e": 1594, "\u2827\u280a\u2803\u2817\u2801\u281e\u2811\u2824\u2802\u2800\u2824\u2819\u2825\u2817\u2801\u281e\u280a\u2815\u281d\u2824\u2812\u2800": 1595, "\u2832\u280e\u281e\u2817\u280a\u280f\u2836\u2836": 1596, "\u2802\u2800\u2800\u2800\u2800\u2800\u2800\u2800\u2800\u2800\u2800\u2800\u2800\u2800\u2800\u2800\u2800\u2800\u2800\u2800\u2800\u2800\u2800\u2800\u2800\u2800\u2800\u2800\u2800\u2800": 1597, "\u2824\u2836\u2802\u2800\u2800\u2800\u2800\u2800\u2800\u2800\u2800\u2800\u2800\u2800\u2800\u2800\u2800\u2800\u2800\u2800": 1598, "\u2815\u280b\u2815\u2817\u280d\u2801\u281e": 1599, "\u284a\u280d\u280f": 1600, "\u284b\u2865\u285d\u2849\u285e": 1601, "\u284b\u2865\u285d\u2849\u285e\u284a\u2855\u285d": 1602, "\u284e\u284e": 1603, "\u280d\u2815\u2819\u2825\u2807\u2811": 1604, "\u280a\u281d\u280e\u2811\u2817\u281e\u2838": 1605, "\u280b\u280a\u2807\u2811\u2838": 1606, "\u2838\u280a\u281d\u281e\u2811\u281d\u281e": 1607, "\u2821\u280e\u2814": 1608, "\u2800\u2836\u2800\u280e\u2811\u2807\u280b\u2832\u281b\u2811\u281e\u2838": 1609, "\u280d\u280e": 1610, "\u2825\u281d\u2819\u2815": 1611, "\u280a\u280d\u2815\u2819\u2801\u2807": 1612, "\u2841\u284f": 1613, "\u2800\u283a\u280a\u281e\u2813\u2800": 1614, "\u2807\u2815\u2801\u2819": 1615, "\u2815\u2809": 1616, "\u2817\u2811\u280b": 1617, "\u280a\u2811\u2807": 1618, "\u280e\u2811\u280e\u280e\u280a\u2815\u281d\u2838\u280a\u2819": 1619, "\u2801\u2825\u281e\u2815": 1620, "\u281b\u2815": 1621, "\u280d\u280a\u281d": 1622, "\u2801\u2807\u280a": 1623, "\u2815\u280f\u2801\u2809": 1624, "\u280a\u281d\u2819\u280a\u2809": 1625, "\u2807\u2811\u282d": 1626, "\u2836\u2806\u2800": 1627, "\u280a\u2819\u2800": 1628, "\u280b\u2815\u2817\u280d": 1629, "\u280e\u280f\u2801\u2809\u2811": 1630, "\u2800\u2800\u2800\u2800\u2800\u2800\u2800\u2800\u2800\u2800\u2800\u2800\u2800\u2800\u2800\u2800\u2800\u2800\u2800\u2800\u2800\u2823": 1631, "\u2803\u2825\u281e\u281e": 1632, "\u2803\u2825\u281e\u281e\u2815\u281d": 1633, "\u2817\u2815\u283a": 1634, "\u2825\u2807\u2807": 1635, "\u280d\u2811\u2819\u280a\u2801": 1636, "\u280c\u280c": 1637, "\u2801\u2809\u2813": 1638, "\u285d\u2815\u2800": 1639, "\u2817\u2811\u280f\u2817": 1640, "\u2809\u2815\u281d\u280b\u280a\u2819": 1641, "\u2809\u2815\u281d\u280b\u280a\u2819\u2811\u281d\u2809\u2811": 1642, "\u2812\u2800\u2800\u2800\u2800\u2800\u2824\u2824\u2824\u2800\u2800\u2800\u2800\u2800": 1643, "\u284e\u2849\u2847\u2800": 1644, "\u2812\u2800\u2800\u2800\u2800\u2800\u2800\u2800\u2800\u2800\u2817\u2811\u281e\u2825\u2817\u281d\u2800": 1645, "\u2824\u2802\u2800\u2800\u2800\u2800\u2800\u2800\u2800\u2800\u2800": 1646, "\u2857\u284a\u284f\u285e": 1647, "\u284a\u284b": 1648, "\u280a\u281e\u2811\u280d\u280e\u2836\u2836": 1649, "\u2845\u2811\u283d\u283a\u2815\u2817\u2819": 1650, "\u2843\u2817\u2801\u280a\u2807\u2807\u2811\u2849\u2815\u2819\u2811": 1651, "\u283a\u2813\u280a\u2807\u2811": 1652, "\u2824\u2802\u2800\u2824\u281e\u283d\u280f\u2811\u2824\u2836\u2802\u2800\u2800\u2800\u2800\u2800\u2800\u2800\u2800\u2800\u2800\u2800\u2800\u2800\u2836\u2824": 1653, "\u280e\u281e\u2801\u281e": 1654, "\u287a\u2853": 1655, "\u2851\u285d": 1656, "\u2849\u2813\u2811": 1657, "\u2849\u2813\u2811\u2809\u2805": 1658, "\u2812\u2800\u280e\u281e\u2817\u2802\u2800\u2807\u2801\u281d\u281b\u2825\u2801\u281b\u2811": 1659, "\u2800\u280a\u281d\u2800\u280e\u2811\u2807\u280b\u2832": 1660, "\u2812\u2821\u281d\u2800\u2800\u2800\u2800": 1661, "\u289a\u283e": 1662, "\u283a\u2813\u280a\u280e\u280f\u2811\u2817": 1663, "\u2809\u2815\u281d\u2819": 1664, "\u2859\u2855\u285e": 1665, "\u280f\u2817\u2815\u280f\u2811\u2817\u281e\u283d\u2800\u2800\u2800\u2800\u2800\u2819\u2811\u280b\u2800": 1666, "\u2819\u2815\u281e\u2838": 1667, "\u280a\u280e\u2838": 1668, "\u280f\u2801\u2825\u280e\u2811\u2824\u2802\u2800\u2824\u2819\u2825\u2817\u2801\u281e\u280a\u2815\u281d\u2824\u2812\u2800": 1669, "\u281e\u2815\u281e": 1670, "\u2819\u2801\u281e\u2801\u2832\u281b\u2811\u281e\u2836\u2824": 1671, "\u285d\u2800": 1672, "\u2802\u2800\u2824\u280a\u281d\u281e\u2811\u281d\u280e\u280a\u281e\u283d\u2824\u2812\u2800\u289a\u2832": 1673, "\u2800\u2836\u2800\u280b\u2824": 1674, "\u280e\u281e\u2801\u2817\u281e\u2838": 1675, "\u2819\u2811\u281e\u2801": 1676, "\u2819\u2811\u281e\u2801\u280a\u2807": 1677, "\u281b\u281b\u2811\u280e\u281e": 1678, "\u280e\u2815\u2817\u2800": 1679, "\u2836\u2821\u283a\u282e": 1680, "\u2809\u2807\u2811": 1681, "\u285b\u2817\u2801\u280f\u2813": 1682, "\u2801\u281d\u2801\u2807\u283d\u2835\u2811\u2817": 1683, "\u283a\u2815\u2817": 1684, "\u283a\u2815\u2817\u2805": 1685, "\u2811\u282d\u2811\u2809": 1686, "\u2838\u280e\u281e\u2801\u2809\u2805": 1687, "\u2843\u2817\u2801\u280a\u2807\u2807\u2811\u284d\u2811\u281d\u2825\u284a\u281e\u2811\u280d\u2836\u2800\u2800\u2800\u2800\u2800\u2800\u2800\u2800\u2800\u2800\u2800\u2800\u2800\u2800\u2800\u2800\u2800": 1688, "\u2843\u2817\u2801\u280a\u2807\u2807\u2811\u284d\u2811\u281d\u2825\u284a\u281e\u2811\u280d\u2836\u2800\u2800\u2800\u2800\u2800\u2800\u2800\u2800\u2800\u2800\u2800\u2800\u2800\u2800\u2800\u2800\u2800\u280a\u2819\u2836\u2824": 1689, "\u2824\u2802\u2800\u2800\u2800\u2800\u2800\u2800\u2800\u2800\u2800\u2800\u2800\u2800\u2800\u2800\u2800\u2800\u2800\u2803\u2817\u2801\u280a\u2807\u2807\u2811\u2838\u280a\u2809\u2815\u281d": 1690, "\u280d\u280e\u281b": 1691, "\u2824\u2812\u2800\u285e\u2815\u2805\u2811\u281d\u285e\u283d\u280f\u2811\u2832\u2849\u2855\u285d\u284e\u285e\u2841\u285d\u285e": 1692, "\u281e\u2801\u2817\u281b\u2811\u281e\u2838\u280a\u2819": 1693, "\u2849\u2813": 1694, "\u2807\u280a\u2803": 1695, "\u280d\u2801\u281d\u2801\u281b\u2811": 1696, "\u2865\u280f": 1697, "\u2853\u285e\u285e": 1698, "\u2815\u2809\u2805\u2811": 1699, "\u280e\u2800\u280b\u2817\u2815\u280d\u2800": 1700, "\u2811\u281d\u281b\u280a\u281d\u2811\u2800": 1701, "\u2849\u2815\u281d\u2827\u2811\u2817\u280e\u2801\u281e\u280a\u2815\u281d": 1702, "\u2819\u2815\u283a": 1703, "\u2812\u2800\u2855\u280f\u281e\u280a\u2815\u281d\u2801\u2807\u282e": 1704, "\u281e\u281e\u2815": 1705, "\u281e\u281e\u2815\u280d": 1706, "\u2815\u280f\u2801\u2809\u280a\u281e\u283d": 1707, "\u2812\u2800\u289a\u2832": 1708, "\u2823\u280c\u2819\u280a\u2827\u281c\u2800\u2800\u2800\u2800\u2800\u2800\u2800\u2800\u2800\u2800\u2800\u2800\u2800\u2800\u2800\u2800\u2800": 1709, "\u2825\u280f\u2819\u2801\u281e\u2811": 1710, "\u280a\u2801\u2807\u280a\u2835": 1711, "\u280a\u280b\u2800\u2836": 1712, "\u281e\u2832": 1713, "\u280a\u280b\u2800\u281d\u2815\u281e\u2800": 1714, "\u2817\u2801\u280a\u280e\u2811\u2800": 1715, "\u2811\u282d\u2809\u2811\u280f\u281e\u2800\u2851\u282d\u2809\u2811\u280f\u281e\u280a\u2815\u281d": 1716, "\u2811\u282d\u2809\u2811\u280f\u281e\u2800\u2851\u282d\u2809\u2811\u280f\u281e\u280a\u2815\u281d\u2800\u2801\u280e\u2800": 1717, "\u2811\u282d\u2809\u2811\u280f\u281e\u2800\u2851\u282d\u2809\u2811\u280f\u281e\u280a\u2815\u281d\u2800\u2801\u280e\u2800\u2811": 1718, "\u2819\u2811\u2809\u2815\u2819\u2811": 1719, "\u2809\u2815\u281d\u281e\u280a\u281d": 1720, "\u283d\u2815\u2825\u2800": 1721, "\u285e\u2825\u280f\u2807\u2811": 1722, "\u285a\u2841\u2867": 1723, "\u2803\u283d\u281e\u2811": 1724, "\u284b\u2825\u281d": 1725, "\u284b\u2825\u281d\u2809\u281e\u280a\u2815\u281d": 1726, "\u2800\u2836\u2800\u282e\u283e": 1727, "\u2849\u2815\u281d\u2827\u2811\u2817\u281e\u2800": 1728, "\u283a\u2817\u280a": 1729, "\u2817\u2801\u2807": 1730, "\u2817\u2801\u281e\u2811": 1731, "\u280f\u280a\u281e\u2809\u2813": 1732, "\u2800\u2800\u2800\u2800\u2800\u2800\u2800\u2800\u2800\u2800\u2800\u2800\u2800\u2800\u2800\u2800\u2800\u2800\u2800\u2800\u2800\u2800\u2800\u2800\u2800\u2800\u2800\u2800\u2800\u2800\u2800\u2800": 1733, "\u280e\u281e\u2817\u2812\u2800\u2800\u2800\u2800\u2800\u2800\u2800\u2800\u2800\u2824\u2824\u2824\u285b\u2811\u281e\u2800": 1734, "\u2811\u281d\u2809\u2815\u2819\u2811\u2817\u2800\u2836\u2800\u2843\u2817\u2801\u280a\u2807\u2807\u2811\u2893\u2851\u281d\u2809\u2815\u2819\u2811\u2817": 1735, "\u281e\u2815\u281e\u2801\u2807": 1736, "\u2836\u2836\u2800\u2800\u2800\u2800\u2800\u2800\u2800\u2800\u2800\u280e\u2811\u2807\u280b\u2832": 1737, "\u2812\u2800\u2800\u2800\u2800\u2800\u2800\u2800\u2800\u2800\u2824\u2824\u2824\u2800\u2800\u2800\u2800\u2800\u2800\u2800\u2800\u2800": 1738, "\u280a\u280b\u2800\u280e\u2811\u2807\u280b\u2832": 1739, "\u2800\u2800\u2800\u2800\u2800\u2800\u2800\u2800\u2800\u2800\u2800\u2800\u2800\u2800\u2800\u2800\u2800\u2800\u2800\u2800\u2800\u2800\u2800\u2800\u2800\u2800\u2817\u2811\u281e\u2825\u2817\u281d\u2800": 1740, "\u2817\u2801\u2809\u281e\u2800": 1741, "\u2836\u280e\u2811\u2807\u280b\u2832\u2811\u281d\u2809\u2815\u2819\u2811\u2817\u2832\u2811\u281d\u2809\u2815\u2819\u2811\u2836": 1742, "\u280e\u281e\u2817\u280a\u280f\u280f\u2811": 1743, "\u283e\u2800\u2836\u2800\u280b\u280a\u2811\u2807\u2819\u2836\u2819\u2811\u280b\u2801\u2825\u2807\u281e\u2838\u280b\u2801\u2809\u281e\u2815\u2817\u283d\u2836": 1744, "\u2836\u2800\u2800\u2800\u2800\u2800\u2800\u2800\u2800\u2800\u280e\u2811\u2807\u280b\u2832": 1745, "\u2819\u2801\u281e\u2811\u281e\u280a\u280d\u2811\u2832\u281d\u2815\u283a\u2836\u2836": 1746, "\u280e\u2813\u2815\u283a\u284e\u281e\u2801\u281e\u2825\u280e": 1747, "\u284a\u280d\u280f\u2815\u2817\u281e": 1748, "\u280e\u2825\u281b\u281b\u2811\u280e\u281e": 1749, "\u2800\u282b\u282f\u2881\u2812": 1750, "\u2811\u282d\u2811\u2809\u2825\u281e\u2811": 1751, "\u2824\u2802\u2800\u2800\u2800\u2800\u2800\u2800\u283c\u2800": 1752, "\u281d\u2801\u280d\u2811\u280e": 1753, "\u280a\u280d\u280f\u2815\u2817\u281e\u280e": 1754, "\u2801\u280e\u281e\u2832": 1755, "\u2809\u2815\u281d\u281d\u2832": 1756, "\u2851\u282d\u281e": 1757, "\u2811\u2809\u281e\u2800": 1758, "\u280b\u2801\u280e\u281e": 1759, "\u2801\u280e\u2811": 1760, "\u281e\u280a\u281e\u2807\u2811": 1761, "\u2836\u2800\u2801\u280e\u283d\u281d\u2809\u2800\u2819\u2811\u280b\u2800": 1762, "\u280e\u281e\u283d": 1763, "\u2803\u2815\u2819": 1764, "\u280a\u281b\u2813\u281e": 1765, "\u280b\u2815\u281d\u281e\u2824\u280e\u280a\u2835\u2811": 1766, "\u2811\u280d": 1767, "\u281e\u2815\u280f": 1768, "\u2803\u2815\u2817\u2819\u2811\u2817\u2824\u2817\u2801\u2819\u280a": 1769, "\u2803\u2815\u2817\u2819\u2811\u2817\u2824\u2817\u2801\u2819\u280a\u2825": 1770, "\u2803\u2815\u2817\u2819\u2811\u2817\u2824\u2817\u2801\u2819\u280a\u2825\u280e\u2812\u2800": 1771, "\u289a\u2832\u2883": 1772, "\u2836\u2836\u2806\u2800\u2800\u2800\u2800\u2800\u2800\u2800\u2800\u2800\u2800\u2800\u2800\u2800": 1773, "\u2811\u282d\u281e\u2800": 1774, "\u285e\u2811\u282d\u281e": 1775, "\u2813\u2815\u2807": 1776, "\u2857\u2811\u2809\u2815\u2817\u2819\u2811\u2817": 1777, "\u2801\u280e\u283d\u281d\u2809\u2800\u280b\u2825\u281d\u2809\u281e\u280a\u2815\u281d\u2800": 1778, "\u2804\u2836\u2832\u281e\u2811\u282d\u281e": 1779, "\u289a\u2802\u2800": 1780, "\u284e\u2811\u2807\u2811": 1781, "\u2804\u2836\u2832": 1782, "\u2806\u2800\u2800\u2800\u2800\u2800\u2800\u2800\u2800\u2800\u2800\u2800\u2800\u2800\u2800\u2800\u2800\u2800\u2800\u2800\u2800\u2800\u2800\u2800\u2800\u2800\u2800": 1783, "\u2800\u282f": 1784, "\u2800\u282e\u2836\u2800": 1785, "\u2825\u280e\u2811\u2817\u2838": 1786, "\u2881\u283e": 1787, "\u2800\u2836\u2800\u285d\u2815\u281d\u2811": 1788, "\u2819\u280a\u2809\u281e\u2836": 1789, "\u2819\u2811\u2803\u2825": 1790, "\u2824\u2800\u280a\u281d\u2800": 1791, "\u280d\u2801\u280a\u281d": 1792, "\u2832\u2817\u2825\u281d": 1793, "\u280d\u2801\u280f\u280f": 1794, "\u284e\u2809\u2817\u280a\u280f": 1795, "\u2859\u280a\u2809\u281e\u2802\u2800": 1796, "\u281e\u2811\u2819\u2800": 1797, "\u2815\u2807\u2815\u281d": 1798, "\u2855\u280f": 1799, "\u2803\u2817\u2801\u2809\u2805\u2811": 1800, "\u2812\u2800\u2800\u2800\u2800\u2800\u2824\u2824\u2824\u2841": 1801, "\u2812\u2800\u2847\u2801\u281d\u281b\u2825\u2801\u281b\u2811": 1802, "\u2815\u280f\u2811\u2817": 1803, "\u2836\u280e\u2811\u2807\u280b\u2836\u2812\u2800\u2800\u2800\u2800\u2800\u2800\u2800\u2800\u2800\u280e\u2811\u2807\u280b\u2832": 1804, "\u2809\u2815\u281d\u280e\u281e\u2801\u281d\u281e": 1805, "\u284b\u2857\u2855\u284d": 1806, "\u285d\u2855": 1807, "\u2836\u2807\u2801\u281d\u281b\u2825\u2801\u281b\u2811": 1808, "\u2811\u282d\u2801\u280d\u280f\u2807\u2811": 1809, "\u2836\u2800\u2824\u281c\u2800\u2847\u280a\u280e\u281e\u282e": 1810, "\u280b\u2815\u2817\u2800\u280a": 1811, "\u282e\u2836\u2800": 1812, "\u2804\u2836\u2802\u2800": 1813, "\u2804\u2836\u2802\u2800\u2836\u2804": 1814, "\u2809\u2815\u280f\u2811": 1815, "\u2824\u2802\u2800\u2800\u2800\u2800\u2800\u2800\u2800\u2800\u2800\u2800\u2800\u2800\u2800\u2824": 1816, "\u2807\u283d\u2800": 1817, "\u2801\u280a": 1818, "\u2851\u2819": 1819, "\u2815\u280f\u281e\u280a\u2815\u281d": 1820, "\u280a\u281d\u281e\u2811\u2817\u281d": 1821, "\u2809\u2815\u2819": 1822, "\u280d\u280a\u280e": 1823, "\u2812\u2800\u2847\u280a\u280e\u281e\u282e": 1824, "\u281e\u2817\u2801\u281d\u280e\u2809\u2817\u280a\u280f\u281e\u280a\u2815\u281d": 1825, "\u2811\u281d\u2819\u2811\u2817": 1826, "\u285e\u2817\u2801\u281d": 1827, "\u2801\u281d\u2801\u2807\u283d": 1828, "\u2800\u2800\u2800\u2800\u2800\u2800\u2800\u2800\u2800\u2800\u2800\u2800\u2800\u2800\u2800\u2800\u2800\u2800\u2817\u2811\u281e\u2825\u2817\u281d\u2800": 1829, "\u2811\u2819\u2838": 1830, "\u2801\u2817\u2809\u2813": 1831, "\u2811\u281d\u2825\u280d\u2811\u2817": 1832, "\u2811\u281d\u2825\u280d\u2811\u2817\u2801\u281e\u2811": 1833, "\u2838\u2809\u2815\u2825\u281d\u281e": 1834, "\u2836\u2821\u280e\u2814": 1835, "\u2836\u2824\u2824": 1836, "\u2825\u2825": 1837, "\u2825\u2825\u280a\u2819": 1838, "\u285d\u2851": 1839, "\u2803\u2825\u280b\u280b\u2811\u2817": 1840, "\u2800\u2800\u2800\u2800\u2800\u2800\u2800\u2800\u2800\u2800\u2800\u2800\u2800\u280b\u2815\u2817\u2800": 1841, "\u2815\u2825\u281e\u280f\u2825\u281e\u2838\u280f\u2817\u2811\u280b\u280e\u2832": 1842, "\u2832\u280a\u280e\u2815\u280b\u2815\u2817\u280d\u2801\u281e": 1843, "\u280e\u2813\u2815\u283a\u284e\u281e\u2801\u281e\u2825\u280e\u2836\u2804": 1844, "\u2811\u281d\u2819\u2838": 1845, "\u280e\u2832\u280f\u2801\u281e\u2813": 1846, "\u2849\u2847\u2841\u284e\u284e": 1847, "\u280e\u2825\u281b\u281b\u2811\u280e\u281e\u280a\u2815\u281d": 1848, "\u2805\u280a\u281d\u2819": 1849, "\u284a\u280b\u2800": 1850, "\u283f\u2821\u281d\u283f\u2824\u2802\u2800\u2824": 1851, "\u280e\u281e\u2815\u2817\u2811": 1852, "\u280b\u280a\u2807\u2811\u2838\u280f\u2801\u281e\u2813": 1853, "\u2800\u2800\u2800\u2800\u2800\u2800\u2800\u2800\u2800\u2800\u2800\u2800\u2800\u2817\u2804": 1854, "\u2836\u280e\u2811\u2807\u280b\u2832\u2811\u281d\u2809\u2815\u2819\u2811\u2817\u2832\u2811\u281d\u2809\u2815\u2819\u2811\u2836\u2824": 1855, "\u2857\u2811\u2807\u2801\u281e\u280a\u2815\u281d\u285e\u283d\u280f\u2811": 1856, "\u2836\u2802\u2800\u2800\u2800\u2800\u2800\u2800\u2800\u2800\u2800\u2800\u2800\u2800\u2800\u2843\u2817\u2801\u280a\u2807\u2807\u2811\u284d\u2811\u281d\u2825\u284a\u281e\u2811\u280d\u2836\u2800\u2800\u2800\u2800\u2800\u2800\u2800\u2800\u2800\u2800\u2800\u2800\u2800\u2800\u2800\u2800\u2800\u280a\u2819\u2836\u2824": 1857, "\u280e\u2801\u2827\u2811\u2838": 1858, "\u2814\u2814": 1859, "\u2812\u2800\u285d\u2815\u2819\u2811": 1860, "\u2807\u280a\u2803\u2800\u280a\u280d\u280f\u2815\u2817\u281e\u2800": 1861, "\u2853\u285e\u285e\u284f\u2851": 1862, "\u2853\u285e\u285e\u284f\u2851\u282d": 1863, "\u2853\u285e\u285e\u284f\u2851\u282d\u2809\u2811\u280f\u281e\u280a\u2815\u281d": 1864, "\u2803\u2817\u280a\u2819\u281b\u2811": 1865, "\u284d\u2815\u2819\u2801\u2807": 1866, "\u2824\u2802\u2800\u2800\u2800\u2800\u2800": 1867, "\u2801\u2819\u2819\u2838": 1868, "\u2801\u281d\u2800": 1869, "\u2832\u289a": 1870, "\u2802\u2800\u283c": 1871, "\u2812\u2800\u2883\u289a": 1872, "\u2809\u2811\u281d": 1873, "\u2803\u2815\u281e\u281e\u2815\u280d": 1874, "\u280d\u2815\u2819\u2811\u2824": 1875, "\u280a\u280b\u283d": 1876, "\u281b\u2801\u280f": 1877, "\u2883\u2891\u2891\u2802\u2883\u2891\u2891\u2802\u2883\u2891\u2891\u2802": 1878, "\u289a\u2832\u2881": 1879, "\u289a\u2802\u289a\u2802": 1880, "\u2809\u2815\u2807\u2825\u280d": 1881, "\u2809\u2815\u2807\u2825\u280d\u281d": 1882, "\u289a\u2800": 1883, "\u2841\u2825": 1884, "\u2841\u2825\u2819\u280a\u2815": 1885, "\u285e\u2811\u282d\u281e\u2800": 1886, "\u280a\u281d\u2819\u280a\u2809\u2801\u281e\u2815\u2817": 1887, "\u283a\u280a\u281e\u2809\u2813": 1888, "\u2809\u2813\u2811": 1889, "\u2807\u2811\u281e\u2800": 1890, "\u2804\u2836\u2832\u281e\u2811\u282d\u281e\u2849\u2815\u281d\u281e\u2811\u281d\u281e": 1891, "\u2809\u281e\u2800": 1892, "\u2832\u2801\u280f\u280f\u2811\u281d\u2819": 1893, "\u2803\u2801\u280e\u2811": 1894, "\u2847\u2847": 1895, "\u2836\u2800\u2800\u2800\u2800\u2800\u2800\u2800\u2800\u2800\u2800\u2800\u2800\u2800\u2800\u2800\u2800\u2800\u2800\u283c\u2800": 1896, "\u2819\u2811\u281d\u280e\u280a\u281e\u283d": 1897, "\u2809\u2811\u280a\u2827": 1898, "\u2800\u281e\u2813\u2811\u2800": 1899, "\u2859\u2815": 1900, "\u2838\u2843": 1901, "\u280d\u280a\u2809": 1902, "\u280d\u280a\u2809\u2815\u2807\u2815\u281d": 1903, "\u280e\u2809\u2815\u2817\u2811": 1904, "\u281e\u280a\u281d": 1905, "\u2836\u2805\u283a": 1906, "\u283a\u2813\u2811": 1907, "\u280b\u2825\u281d\u2809": 1908, "\u2819\u2811\u2807\u2811\u281e\u2811": 1909, "\u2847\u2801\u281d\u281b\u2825\u2801\u281b\u2811\u2832\u285a\u2841\u2867": 1910, "\u285d\u2859": 1911, "\u284a\u285d\u284e": 1912, "\u2849\u2857\u2851": 1913, "\u2849\u2857\u2851\u2841\u285e\u2851": 1914, "\u285e\u2851\u286d": 1915, "\u2849\u284a": 1916, "\u2812\u2800\u280e\u281e\u2817\u2836\u2800\u2824\u281c\u2800\u280e\u281e\u2817\u2812\u2800\u2800\u2800\u2800\u2800\u2800\u2800\u2800\u2800\u2824\u2824\u2824": 1917, "\u2800\u282e\u2800\u2881": 1918, "\u280e\u281e\u2817\u2825\u2809\u281e\u280a\u2815\u281d": 1919, "\u2832\u2807\u2815\u283a\u2811\u2817": 1920, "\u2812\u2800\u2803\u2815\u2815\u2807\u2800\u2836\u2800\u285e\u2817\u2825\u2811": 1921, "\u2815\u280f\u2811\u281d\u2801\u280a": 1922, "\u2865\u284e": 1923, "\u2838\u280b\u280a\u2807\u2811": 1924, "\u2825\u2817\u2811": 1925, "\u2804\u2836\u2812\u2800\u289a\u282d\u2881": 1926, "\u2809\u2815\u2817\u2811\u2800": 1927, "\u2803\u2817\u2801\u280a\u2807\u2807\u2811\u2893\u2838": 1928, "\u2824\u283e\u2800\u2836\u2800": 1929, "\u2800\u2809\u2815\u2819\u2811\u2800": 1930, "\u280e\u2811\u2801\u2817\u2809\u2813": 1931, "\u2801\u281d\u2801\u2807\u283d\u2835\u2811\u2838": 1932, "\u281e\u280a\u280d\u2811\u280e\u281e": 1933, "\u281e\u280a\u280d\u2811\u280e\u281e\u2801": 1934, "\u281e\u280a\u280d\u2811\u280e\u281e\u2801\u280d\u280f": 1935, "\u2809\u2815\u281d\u281e\u2811\u281d\u281e\u2824\u2812\u2800": 1936, "\u2824\u280e\u2811": 1937, "\u2817\u2811\u281f\u2825\u2811\u280e\u281e": 1938, "\u2819\u2811\u2809\u2815\u2817": 1939, "\u2819\u2811\u2809\u2815\u2817\u2801\u281e\u2815\u2817": 1940, "\u2807\u280a\u281d\u2811\u280e\u2832\u2801\u280f\u280f\u2811\u281d\u2819\u2836": 1941, "\u2801\u280e\u2809\u2801": 1942, "\u2801\u280e\u2809\u2801\u2819\u2811": 1943, "\u2849\u2815\u2819": 1944, "\u284e\u281e\u2801\u281e\u2825": 1945, "\u2824\u2812\u2800\u281e\u2801\u280e\u2805\u2832": 1946, "\u2800\u283c\u2800": 1947, "\u282e\u2800\u2881": 1948, "\u2824\u2802\u2800\u2800\u2800\u2800\u2800\u2800\u2800\u2800\u2800\u2800\u2800\u2800\u2800\u2800\u2800\u2800\u2800\u2803\u2817\u2801\u280a\u2807\u2807\u2811\u2838\u280a\u2809\u2815\u281d\u2836\u2824": 1949, "\u2807\u2801\u2803\u2811\u2807\u2836\u280e\u2811\u2807\u280b\u2832\u2811\u281d\u2809\u2815\u2819\u2811\u2817\u2832\u2811\u281d\u2809\u2815\u2819\u2811\u2836\u2824": 1950, "\u2824\u2836\u2802\u2800\u2800\u2800\u2800\u2800\u2800\u2800\u2800\u2800\u2800\u2800\u2800\u2800\u2800\u2800\u2800\u2800\u281e\u2811\u282d\u281e\u2838\u2807\u2801\u2803\u2811\u2807": 1951, "\u2824\u2836\u2802\u2800\u2800\u2800\u2800\u2800\u2800\u2800\u2800\u2800\u2800\u2800\u2800\u2800\u2800\u2800\u2800\u2800\u281e\u2811\u282d\u281e\u2838\u2807\u2801\u2803\u2811\u2807\u2836\u2824": 1952, "\u284e\u282e\u2824": 1953, "\u280d\u2811\u281e\u2813\u2815\u2819\u2800\u2800\u2800\u2800\u2800\u2819\u2811\u280b\u2800": 1954, "\u2801\u2809\u281e\u280a\u2827\u2811\u2838\u280f\u2817\u2815\u281a\u2811\u2809\u281e": 1955, "\u280a\u281d\u2809\u2807\u2825\u2819\u2811": 1956, "\u2819\u2811\u280f\u2811\u281d\u2819": 1957, "\u2819\u2811\u280f\u2811\u281d\u2819\u2811\u281d": 1958, "\u2819\u2811\u280f\u2811\u281d\u2819\u2811\u281d\u2809\u280a": 1959, "\u2800\u2800\u2800\u2800\u2800\u2800\u2800\u2800\u2800\u285e\u2815\u2805\u2811\u281d\u285e\u283d\u280f\u2811\u2832": 1960, "\u2812\u2800\u2824\u283c": 1961, "\u2800\u2800\u2800\u2800\u2800\u2800\u2800\u2800\u2800\u2800\u2800\u2800\u2800\u285e\u2815\u2805\u2811\u281d\u285e\u283d\u280f\u2811\u2832": 1962, "\u2819\u2803": 1963, "\u2809\u2825\u2817\u280e\u2815\u2817\u2832": 1964, "\u280e\u2811\u2807\u280b\u2832\u281b\u2817\u2801\u280f\u2813\u2832": 1965, "\u2819\u2817\u280a": 1966, "\u2819\u2817\u280a\u2827\u2811\u2817": 1967, "\u284d\u2841\u285e": 1968, "\u284d\u2841\u285e\u2849\u2853": 1969, "\u280f\u2815\u280a\u281d\u281e": 1970, "\u280a\u2815": 1971, "\u2807\u2815\u281b": 1972, "\u280e\u281e\u281e\u2838": 1973, "\u280e\u2809\u2807\u2838\u2803\u2817\u280a\u2819\u281b\u2811": 1974, "\u2825\u281d\u280a\u280b\u280a\u2811\u2819": 1975, "\u284f\u2817\u2811\u280b": 1976, "\u2807\u2815\u281b\u281b\u2811\u2817\u2832\u280a\u281d\u280b\u2815": 1977, "\u2803\u2811\u2800": 1978, "\u2827\u280a\u2809": 1979, "\u280e\u281e\u283d\u2807\u2811": 1980, "\u280e\u281e\u2811\u280d": 1981, "\u2800\u282f\u2800": 1982, "\u289a\u280f\u282d": 1983, "\u2809\u2811\u281d\u281e\u2811\u2817\u2806\u2800\u2800\u2800\u2800\u2800\u2800\u2800\u2800\u2800\u2800\u2800\u2800\u2800": 1984, "\u281e\u2825\u2817\u281d\u2824": 1985, "\u2809\u2815\u281d\u281e\u2811\u281d\u281e\u2800": 1986, "\u281d\u2815\u281d\u2811": 1987, "\u281c\u2800\u2800\u2800\u2800\u2800\u2800\u2800\u2800\u2800\u2800\u2800\u2800\u2800": 1988, "\u280d\u2815\u2819\u2801\u2807\u280a\u281e": 1989, "\u280d\u2815\u2819\u2801\u2807\u280a\u281e\u280a": 1990, "\u280f\u2807\u2801\u2809\u2811\u2813\u2815\u2807": 1991, "\u280f\u2807\u2801\u2809\u2811\u2813\u2815\u2807\u2819\u2811\u2817": 1992, "\u280d\u2811\u2819\u280a\u2801\u2857\u2811\u2809\u2815\u2817\u2819\u2811\u2817": 1993, "\u280d\u2815\u2827": 1994, "\u2825\u2807\u2807\u2800": 1995, "\u2809\u2801\u281e\u2809\u2813": 1996, "\u2836\u281c\u2800": 1997, "\u2804\u2836\u2806\u2800\u2800\u2800\u2800\u2800\u2800\u2800\u2800\u2800\u2800\u2800\u2800\u2800\u2800\u2800\u2800\u2800": 1998, "\u2800\u2800\u2800\u2808\u2801\u280f\u280f": 1999, "\u283f\u2824\u2836\u2800\u2800\u2800\u2800\u2800\u2800\u2800\u2800\u2800": 2000, "\u2801\u2825\u2819\u280a\u2815\u2838\u2819\u2801\u281e\u2801": 2001, "\u2807\u283d": 2002, "\u285e\u2813\u2811\u2800": 2003, "\u2817\u2801\u281d\u281b\u2811": 2004, "\u285e\u2813\u280a\u280e\u2800": 2005, "\u284f\u287d": 2006, "\u284f\u287d\u285e\u2853": 2007, "\u284f\u287d\u285e\u2853\u2855\u285d": 2008, "\u2803\u2825\u280a\u2807\u281e\u280a\u281d": 2009, "\u2800\u2800\u2800\u2800\u2800\u2800\u2800\u2800\u2800\u2800\u2819\u2811\u280b\u2800\u2838\u2838\u280a\u281d\u280a\u281e\u2838\u2838\u2836\u280e\u2811\u2807\u280b\u2836\u2812\u2800\u2800\u2800\u2800\u2800\u2800\u2800\u2800\u2800\u280e\u2811\u2807\u280b\u2832": 2010, "\u2843\u2825": 2011, "\u2843\u2825\u280a\u2807": 2012, "\u2809\u2815\u281d\u281e\u280a\u281d\u2825\u2811": 2013, "\u2802\u2800\u2800\u2800\u2800\u2800\u2800\u2800\u2800\u2800\u283e": 2014, "\u280e\u281e\u2801\u281e\u280a\u2809": 2015, "\u2889\u2883": 2016, "\u2849\u2815\u2819\u2811\u2800": 2017, "\u2836\u2804\u2821\u281d": 2018, "\u2800\u2815\u2817\u2800": 2019, "\u280e\u2809\u2815\u280f\u2811": 2020, "\u2807\u2815\u2809\u2801\u2807": 2021, "\u2800\u2800\u2800\u2800\u2800\u2800\u2800\u2800\u2800\u2800\u2800\u2800\u2800\u2800\u2800\u2800\u2800\u2800\u2800\u2800\u2800\u2800\u2800\u2800\u2800\u2800\u2800\u2800\u2800": 2022, "\u2819\u2815\u281e\u280e": 2023, "\u282f\u280e\u2811\u2807\u280b\u2832": 2024, "\u2832\u2800\u2800\u2800\u2800\u2800\u2800\u2800\u2800\u2800\u2800": 2025, "\u2804\u2836\u2812\u2800\u289a\u282d\u289a": 2026, "\u2804\u2836\u2812\u2800\u289a\u282d\u2883": 2027, "\u2836\u2800\u280b\u2815\u2817\u2800": 2028, "\u2824\u2800\u280a\u280b\u2800": 2029, "\u2809\u2811\u280e\u280e\u2815\u2817": 2030, "\u283e\u2800\u2836\u2800\u282e\u283e": 2031, "\u2800\u2800\u2800\u2800\u2800\u2800\u2800\u2800\u2800\u2824\u2824\u2824\u2800\u2800\u2800\u2800\u2800\u2800\u2800\u2800\u2800": 2032, "\u281e\u2811\u282d\u281e\u2838\u281e\u2815\u2838\u2803\u2817\u2801\u280a\u2807\u2807\u2811": 2033, "\u2800\u2836\u2800\u284b\u2801\u2807\u280e\u2811": 2034, "\u2836\u2800\u2800\u2800\u2800\u2800\u2800\u2800\u2800\u2800\u280e\u2811\u2807\u280b": 2035, "\u2836\u2800\u2800\u2800\u2800\u2800\u2800\u2800\u2800\u2800\u280e\u2811\u2807\u280b\u2802\u2800\u2800\u2800\u2800\u2800\u2800\u2800\u2800\u2800": 2036, "\u2857\u2811\u281e\u2825\u2817\u281d": 2037, "\u2809\u2813\u2825\u281d\u2805": 2038, "\u280e\u280a\u280e": 2039, "\u2811\u2817\u2817\u2815\u2817\u2800": 2040, "\u2815\u2825\u280e\u2800": 2041, "\u280a\u281d\u281b\u2838": 2042, "\u284e\u283d\u281d\u281e\u2801": 2043, "\u284e\u281e\u2811": 2044, "\u284e\u281e\u2811\u280f": 2045, "\u280e\u281e\u281e": 2046, "\u284e\u2801\u2827": 2047, "\u280e\u2832\u280f\u2801\u281e\u2813\u2832": 2048, "\u2867\u2841": 2049, "\u2867\u2841\u2857\u284a": 2050, "\u2867\u2841\u2857\u284a\u2841\u2843\u2847\u2851": 2051, "\u2809\u2825\u2817\u2817\u2811\u281d\u281e\u2800": 2052, "\u282f\u2821\u281d\u2800\u2800\u2800\u2800\u282b\u282f\u289a": 2053, "\u2800\u2811\u2807\u280e\u2811\u2800\u2824\u2824": 2054, "\u280a\u281d\u2819\u2811": 2055, "\u2813\u2825\u280d\u2801\u281d\u2838\u280a\u281d\u281e\u2811\u281d\u281e": 2056, "\u284e\u285e\u2851": 2057, "\u283a\u2813\u2801\u281e\u2800": 2058, "\u2803\u2811\u280e\u281e": 2059, "\u280e\u2815\u2825\u2817\u2809\u2811\u2838\u280a\u2819\u2836": 2060, "\u281e\u2801\u2817\u281b\u2811\u281e\u2838\u280a\u2819\u2836": 2061, "\u2824\u2802\u2800\u2800\u2800\u2800\u2800\u2800\u2800\u2800\u2800\u2800\u2800\u2800\u2800\u2800\u2800\u2800\u2800\u2803\u2817\u2801\u280a\u2807\u2807\u2811\u2838\u2807\u2801\u2803\u2811\u2807\u2836\u280e\u2811\u2807\u280b\u2832\u2811\u281d\u2809\u2815\u2819\u2811\u2817\u2832\u2811\u281d\u2809\u2815\u2819\u2811\u2836\u2824": 2062, "\u2813\u280a\u281b\u2813\u2807\u280a\u281b\u2813\u281e": 2063, "\u2819\u280a\u2817\u2811\u2809\u281e\u280a\u2815\u281d\u2800\u2836\u2836\u2800\u2824": 2064, "\u2812\u2800\u2800\u2800\u2800\u2800\u2800\u2800\u2800\u2800\u2800\u2800\u2800\u2800\u280e\u2811\u2807\u280b\u2832": 2065, "\u2807\u280a\u281d\u2811\u282e": 2066, "\u280a\u280b\u2800\u280b\u280a\u2807\u2811": 2067, "\u2836\u280e\u2811\u2807\u280b\u2802\u2800\u281d\u2815\u2819\u2811": 2068, "\u280e\u2815\u2825\u2817\u2809\u2811\u2838\u280a\u2819": 2069, "\u284e\u281e\u2815\u2817\u2811": 2070, "\u2811\u2819\u281b\u2811\u2838\u2819\u2801\u281e\u2801": 2071, "\u280e\u2811\u280e\u280e\u280a\u2815\u281d\u2832\u2817\u2825\u281d": 2072, "\u2857\u2851\u285e": 2073, "\u2857\u2851\u285e\u2865\u2857": 2074, "\u2857\u2851\u285e\u2865\u2857\u285d\u2800": 2075, "\u284d\u2841\u285e\u2849\u2853\u2800\u2836": 2076, "\u2855\u280f\u281e\u280a\u2815\u281d\u2801\u2807\u2802\u2800": 2077, "\u287a\u2811": 2078, "\u2809\u2815\u281d\u281d\u2811\u2809\u281e": 2079, "\u280f\u283d": 2080, "\u2824\u2836\u2800\u2800\u2800\u2800\u2800": 2081, "\u283d\u280a\u2811\u2807": 2082, "\u2819\u2815\u283a\u281d": 2083, "\u280e\u280f\u2811\u2801\u2805": 2084, "\u2855\u280f\u281e\u280a\u2815\u281d\u2801\u2807\u282e": 2085, "\u283a\u280a\u2819": 2086, "\u283a\u280a\u2819\u281e\u2813": 2087, "\u280d\u2801\u2817\u281b\u280a\u281d\u2824\u2803\u2815\u281e\u281e\u2815\u280d": 2088, "\u2811\u281d\u281e\u2836": 2089, "\u2825\u2803": 2090, "\u281a\u2825\u280e\u281e": 2091, "\u2812\u2800\u2881\u2891": 2092, "\u2867\u2815\u280a\u2809\u2811\u2800": 2093, "\u2827\u2815\u280a\u2809\u2811\u2824": 2094, "\u2832\u280e\u2811\u280e\u280e\u280a\u2815\u281d": 2095, "\u2801\u2809\u281e\u280a\u2827\u2811": 2096, "\u2824\u281c\u2800\u2800\u2800\u2800\u2800\u2800\u2800\u2800\u2800\u2800\u2800\u2800\u2800\u2800\u2800\u2800\u2800\u2800\u2800\u2800\u2800\u2823": 2097, "\u281e\u280a\u280d\u2811\u2800": 2098, "\u2800\u2800\u2800\u2800\u2800\u2800\u2800\u2800\u2800\u2800\u2800\u2800\u2800\u2800\u2800\u2800\u2800\u2823": 2099, "\u281e\u2817\u2825\u2811": 2100, "\u280b\u2811\u281e": 2101, "\u280b\u2811\u281e\u2809\u2813": 2102, "\u2832\u281a\u280e\u2815\u281d": 2103, "\u2807\u280a\u2809": 2104, "\u2800\u2804": 2105, "\u283f\u2836\u2800\u2800\u2800\u2800\u2800\u2800\u2800\u2800\u2800\u2800\u2800\u2800\u2800\u2800\u2800\u2800\u2800": 2106, "\u2832\u280f\u2815\u280e\u281e": 2107, "\u2849\u2817\u2811\u2801\u281e\u2811\u2800\u2801\u2800": 2108, "\u2817\u2801\u280a\u280e\u2811\u2800\u2853\u285e\u285e\u284f\u2851\u282d\u2809\u2811\u280f\u281e\u280a\u2815\u281d": 2109, "\u2817\u2801\u280a\u280e\u2811\u2800\u2853\u285e\u285e\u284f\u2851\u282d\u2809\u2811\u280f\u281e\u280a\u2815\u281d\u2836": 2110, "\u281e\u2817\u2801\u281d\u280e\u2809\u2817\u280a": 2111, "\u281b\u2817": 2112, "\u280e\u2811\u280d\u2801\u281d\u281e\u280a\u2809": 2113, "\u281d\u2811\u283a\u2838": 2114, "\u2813\u281e\u281e\u280f\u282d": 2115, "\u2812\u283e": 2116, "\u284f\u283d\u281e\u2813\u2815\u281d": 2117, "\u285a\u2801\u2827\u2801": 2118, "\u2847\u280a\u280e\u281e\u2802\u2800": 2119, "\u2819\u2801\u281e\u2801\u2809\u2807\u2801\u280e": 2120, "\u2819\u2801\u281e\u2801\u2809\u2807\u2801\u280e\u280e\u2811\u280e\u2800": 2121, "\u2819\u2801\u281e\u2801\u2809\u2807\u2801\u280e\u280e\u2811\u280e\u2800\u280a\u280d\u280f\u2815\u2817\u281e\u2800": 2122, "\u280f\u283d\u281e\u2813\u2815\u281d": 2123, "\u281e\u2813\u2811": 2124, "\u2809\u2801\u281e\u2811\u281b\u2815\u2817\u283d": 2125, "\u2800\u280a\u281d\u2800\u2803\u2817\u2801\u280a\u2807\u2807\u2811": 2126, "\u2838\u2805\u2811\u283d\u283a\u2815\u2817\u2819": 2127, "\u2847\u2801\u281d\u281b\u2825\u2801\u281b\u2811\u2832\u284f\u287d\u285e\u2853\u2855\u285d": 2128, "\u2825\u280e\u2811": 2129, "\u284a\u285b": 2130, "\u2817\u2836": 2131, "\u281e\u2811\u282d\u281e\u2800\u281e\u2815\u2800": 2132, "\u2823\u2800\u2807\u2811\u281d\u2836": 2133, "\u2836\u2836\u2800\u2800\u2800\u2800\u2800\u2800\u2800\u2800\u2800\u2800\u2800\u2800\u2800\u2800\u2800\u2800\u2800": 2134, "\u2836\u280e\u2811\u2807\u280b\u2802\u2800\u2809\u2815\u2819\u2811": 2135, "\u2821\u281d\u283f": 2136, "\u281e\u2817\u2801\u280a\u281d": 2137, "\u280a\u281d\u280e\u281e\u2817\u2825\u2809\u281e\u280a\u2815\u281d": 2138, "\u281d\u2801\u280d\u2811\u283f": 2139, "\u2807\u2815\u2803\u2801\u2807\u2800": 2140, "\u2807\u2801\u281d\u281b\u2800\u2836\u2800": 2141, "\u280f\u2801\u281e\u2813\u2807\u280a\u2803\u2800\u280a\u280d\u280f\u2815\u2817\u281e\u2800": 2142, "\u280f\u2801\u281e\u2813\u2807\u280a\u2803\u2800\u280a\u280d\u280f\u2815\u2817\u281e\u2800\u284f\u2801\u281e\u2813": 2143, "\u280d\u2801\u282d\u2838": 2144, "\u281e\u2811\u280d\u280f": 2145, "\u2825\u281d\u280a\u2809": 2146, "\u2813\u2801\u280f\u281e\u280a\u2809\u2838\u280f\u2801\u281e\u281e\u2811\u2817\u281d": 2147, "\u2836\u281e\u2811\u282d\u281e": 2148, "\u280e\u283d\u281d\u281e\u2813\u2811\u280e": 2149, "\u2824\u2836\u2800\u2800\u2800\u2800\u2800\u2800\u2800\u2800\u2800\u2800\u2800\u2800\u2800": 2150, "\u2825\u280e\u280a\u281d\u281b\u2800": 2151, "\u2827\u2815\u280a\u2809\u2811\u280e": 2152, "\u2859\u280a\u2809\u281e\u282e\u280e\u281e\u2817\u2802\u2800\u2841\u281d\u283d\u283e": 2153, "\u2851\u286d": 2154, "\u2824\u2832\u281a\u2815\u280a\u281d\u2836": 2155, "\u280e\u280a\u2803": 2156, "\u280b\u2817\u2815\u280d\u2800\u2803\u2817\u2801\u280a\u2807\u2807\u2811\u2893\u2838": 2157, "\u2827\u2811\u2817\u280a\u281e\u283d": 2158, "\u2812\u2800\u280a\u281d\u281e\u2800\u2800\u2800\u2800\u2800": 2159, "\u2841\u281d\u2801\u2807\u283d\u2835\u2811\u2800": 2160, "\u2807\u280a\u281d\u2811\u2800\u280a\u281d\u2800": 2161, "\u2811\u281d\u2825\u280d\u2811\u2817\u2801\u281e\u2811\u2836": 2162, "\u280e\u281e\u2817\u280a\u280f\u280f\u2811\u2819": 2163, "\u2832\u2811\u281d\u2819\u280e": 2164, "\u2832\u2811\u281d\u2819\u280e\u283a\u280a\u281e\u2813": 2165, "\u280b\u280a\u2807\u2811\u2800": 2166, "\u284e\u281e\u2801\u281e\u2825\u280e\u2804\u2802\u2800\u2804": 2167, "\u2843\u2817\u2801\u280a\u2807\u2807\u2811\u2800\u284a\u2859\u2851": 2168, "\u2809\u2825\u2817\u280e\u2815\u2817\u2800": 2169, "\u2812\u2800\u280a\u281d\u281e\u2800\u2836\u2800\u289a": 2170, "\u2806\u2824\u2802\u2800\u2824": 2171, "\u2841\u284e": 2172, "\u280d\u2801\u281e\u2809\u2813\u2800\u280a\u281d\u2800": 2173, "\u280d\u2801\u281e\u2809\u2813\u2800\u280a\u281d\u2800\u2817\u2811\u2832": 2174, "\u280d\u2801\u281e\u2809\u2813\u2800\u280a\u281d\u2800\u2817\u2811\u2832\u280b\u280a\u281d": 2175, "\u280d\u2801\u281e\u2809\u2813\u2800\u280a\u281d\u2800\u2817\u2811\u2832\u280b\u280a\u281d\u2819\u280a": 2176, "\u280d\u2801\u281e\u2809\u2813\u2800\u280a\u281d\u2800\u2817\u2811\u2832\u280b\u280a\u281d\u2819\u280a\u281e\u2811\u2817": 2177, "\u280e\u283d\u280d\u2803\u2815\u2807\u280e\u282e": 2178, "\u280a\u281d\u2819\u2811\u282d": 2179, "\u2853\u2825\u280d\u2801\u281d": 2180, "\u2849\u2815\u2819\u280a\u281d\u281b": 2181, "\u285e\u2801\u280e\u2805\u284e\u281e\u2801\u281e\u2825": 2182, "\u280d\u280d\u2811\u281d\u281e": 2183, "\u2821\u283a\u282e": 2184, "\u2800\u2836\u2800\u280b\u2824\u2824\u2824": 2185, "\u285b\u285b": 2186, "\u2838\u281d\u2815\u2819\u2811\u2836": 2187, "\u280e\u281e\u2811\u280f\u2832": 2188, "\u2809\u2815\u2819\u2811\u2838\u2803\u2807\u2815\u2809\u2805": 2189, "\u2809\u2815\u280d\u280d\u2801\u281d\u2819\u2838": 2190, "\u2827\u2801\u2807\u280a\u2819": 2191, "\u2812\u2800\u280e\u281e\u2817\u2836\u2812\u2800\u2800\u2800\u2800\u2800\u2800\u2800\u2800\u2800\u2824\u2824\u2824": 2192, "\u280e\u2811\u2807\u280b\u2832\u2809\u2825\u2817\u280e\u2815\u2817\u2838\u2809\u2815\u2807\u2800\u2836\u2800": 2193, "\u280a\u2819\u2812\u2800": 2194, "\u284e\u2841\u2847\u2857\u2811\u280e\u280f\u2815\u281d\u280e\u2811": 2195, "\u280a\u281d\u2809\u2807\u2825\u2819\u2811\u2838\u280b\u280a\u2807\u2811": 2196, "\u2809\u2801\u2807\u2807\u2811\u2811": 2197, "\u2827\u280a\u280e\u280a\u281e": 2198, "\u2836\u281d\u2815\u2819\u2811\u2832": 2199, "\u280e\u2838\u2809\u2817\u2811\u2801\u281e\u2811": 2200, "\u2812\u2800\u2836\u2824": 2201, "\u2812\u2800\u2836\u2824\u2838": 2202, "\u2824\u2802\u2800\u2824\u2838": 2203, "\u2824\u2802\u2800\u2824\u2838\u2824\u2836": 2204, "\u280e\u2800\u2800\u2800\u2800\u2800\u2800\u2800\u2800\u2800\u2800\u2800\u2800\u2800\u2824": 2205, "\u2809\u2825\u2817\u280e\u2815\u2817\u2832\u2811\u282d\u2811\u2809\u2825\u281e\u2811": 2206, "\u2809\u2825\u2817\u280e\u2815\u2817\u2832\u2811\u282d\u2811\u2809\u2825\u281e\u2811\u2836\u2804": 2207, "\u280d\u2801\u281d\u2801\u281b\u2811\u2817": 2208, "\u2853\u285e": 2209, "\u285a\u284e": 2210, "\u285a\u284e\u2855\u285d": 2211, "\u280a\u2819\u2819": 2212, "\u2812\u2800\u2855\u280f\u281e\u280a\u2815\u281d\u2801\u2807\u282e\u280e\u281e\u2817\u283e\u2800\u2836\u2800\u285d\u2815\u281d\u2811\u2800\u2800\u2800\u2800\u2800": 2213, "\u281e\u2811\u2817\u280b\u2801\u2809\u2811": 2214, "\u280f\u2815\u2817\u281e": 2215, "\u2803\u2815\u282d": 2216, "\u289a\u289a\u2819": 2217, "\u289a\u289a\u2819\u288a": 2218, "\u289a\u289a\u2819\u288a\u280b\u280b": 2219, "\u2819\u280a\u280e\u280f\u2807\u2801\u283d\u2812\u2800\u280b": 2220, "\u2819\u280a\u280e\u280f\u2807\u2801\u283d\u2812\u2800\u280b\u2807\u2811\u282d": 2221, "\u2806\u2800\u283f\u2800\u2800\u2800\u2800\u2800\u2800\u2800\u2800\u2800\u2832": 2222, "\u2891\u289a\u289a": 2223, "\u283d\u2812\u2800": 2224, "\u281e\u2817\u2801\u281d\u280e\u2807": 2225, "\u2881\u289a": 2226, "\u283f\u2800\u2800\u2800\u2800\u2800\u2800\u2800\u2800\u2800\u2800\u2800\u2800\u2800": 2227, "\u2801\u2807\u2807\u283d": 2228, "\u280a\u2809\u2805": 2229, "\u2809\u2813\u2811\u2809\u2805\u2811\u2819": 2230, "\u2823\u280c\u2807\u2801\u2803\u2811\u2807\u281c": 2231, "\u2817\u2811\u280e\u280f\u2815\u281d\u280e\u2811\u2832\u281a\u280e\u2815\u281d": 2232, "\u2832\u2817\u2811": 2233, "\u283f\u2800\u2800\u2800\u2800\u2800\u2800\u2800\u2800\u2800\u283f\u2800\u2800\u2800\u2800\u2800\u2800\u2800\u2800\u2800\u2800\u2800\u2800\u2800\u2800\u2800\u2800\u2800\u2800": 2234, "\u281e\u2817\u283d\u2800": 2235, "\u2825\u2811\u2800": 2236, "\u2811\u2832": 2237, "\u2859\u2801\u281e": 2238, "\u2832\u281b\u2811\u281e\u2838": 2239, "\u2800\u2800\u2800\u2800\u2800\u2824\u2824\u2824\u2800\u2800\u2800\u2800\u2800": 2240, "\u281e\u2817\u283d\u2812\u2800\u2800\u2800\u2800\u2800\u2800\u2800\u2800\u2800": 2241, "\u280e\u281e\u2817\u2836\u2811": 2242, "\u2817\u2811\u280e\u280f\u2815\u281d\u280e\u2811\u2800": 2243, "\u2815\u2825\u281e\u280f\u2825\u281e\u2800": 2244, "\u2836\u285e\u2817\u2825\u2811": 2245, "\u280e\u281e\u2801\u281e\u2825\u280e\u2838\u2809\u2815\u2819\u2811": 2246, "\u2813\u2815\u280e\u281e": 2247, "\u281b\u2817\u2801": 2248, "\u2883\u2893": 2249, "\u281e\u283d\u280f\u280a\u281d\u281b\u2800\u280a\u280d\u280f\u2815\u2817\u281e\u2800\u2859\u280a\u2809\u281e\u2802\u2800": 2250, "\u2841\u284e\u2851": 2251, "\u2800\u2836\u2800\u289a\u282d": 2252, "\u280e\u281e\u2817\u2802\u2800": 2253, "\u2857\u2865": 2254, "\u280e\u281f": 2255, "\u2841\u284e\u2849\u284a\u284a\u2838": 2256, "\u2841\u284e\u2849\u284a\u284a\u2838\u285e\u2855\u2838": 2257, "\u280a\u281d\u281b\u2807\u2811\u2800": 2258, "\u2843\u2817\u2801\u280a\u2807\u2807\u2811\u2849\u2815\u2819\u2811\u2851\u281d\u2809\u2815\u2819\u2811\u2817": 2259, "\u282f\u2807\u2801\u281d\u281b": 2260, "\u2800\u2800\u2800\u2800\u2800\u2800\u2800\u2800\u2800\u2800\u2800\u2800\u2800\u2836\u2824": 2261, "\u280b\u2807\u2815\u2801\u281e": 2262, "\u2824\u2802\u2800\u2824\u2809\u2815\u281d\u280e\u281e\u2801\u281d\u281e": 2263, "\u2824\u2836\u2802\u2800\u2800\u2800\u2800\u2800\u2800\u2800\u2800\u2800\u283e": 2264, "\u280b\u281d": 2265, "\u284e\u281e\u2817": 2266, "\u2841\u2817": 2267, "\u2801\u2803\u280e\u281e": 2268, "\u2801\u2803\u280e\u281e\u2817\u2801\u2809\u281e": 2269, "\u285e\u284a": 2270, "\u285e\u284a\u284d\u2851": 2271, "\u2836\u2800\u2800\u2800\u2800\u2800\u2800\u2800\u2800\u2800\u2800\u2800\u2800\u2800\u2811\u2807\u280e\u2811\u2812\u2800\u2800\u2800\u2800\u2800\u2800\u2800\u2800\u2800\u2800\u2800\u2800\u2800\u2800\u2800\u2800\u2800": 2272, "\u2849\u2813\u2811\u2809\u2805\u2800\u280b\u2815\u2817\u2800": 2273, "\u280e\u280f\u2811\u2809\u280a\u280b\u280a\u2809": 2274, "\u280e\u2832\u281b\u2811\u281e": 2275, "\u2807\u2801\u281d\u281b\u2825\u2801\u281b\u2811\u2800\u2836\u2836\u2800": 2276, "\u2813\u2811\u2807": 2277, "\u284b\u2857\u2855\u284d\u2800": 2278, "\u281e\u2817\u2801\u280a\u281d\u280a\u281d\u281b": 2279, "\u280a\u280e\u2800\u281e\u2813\u2811\u2800": 2280, "\u2812\u2800\u280e\u281e\u2817\u2800\u2836\u2800\u285d\u2815\u281d\u2811": 2281, "\u2827\u2838": 2282, "\u280f\u2815\u280e\u280a\u281e\u280a\u2815\u281d": 2283, "\u2892\u2800\u282e": 2284, "\u2800\u2800\u2800\u2800\u2800\u2800\u2800\u2800\u2800\u2800\u2808": 2285, "\u2836\u280e\u2811\u2807\u280b\u2836\u2800\u2824\u281c\u2800\u280e\u281e\u2817\u2812\u2800\u2800\u2800\u2800\u2800\u2800\u2800\u2800\u2800\u2824\u2824\u2824\u285b\u2811\u281e\u2800": 2286, "\u283f\u2836\u2824": 2287, "\u2812\u2800\u280e\u281e\u2817\u2836\u2800\u2824\u281c\u2800\u2803\u2815\u2815\u2807\u2812\u2800\u2800\u2800\u2800\u2800\u2800\u2800\u2800\u2800\u2824\u2824\u2824": 2288, "\u2809\u2815\u281d\u281e\u2811\u281d\u281e\u2836\u2812\u2800\u2800\u2800\u2800\u2800\u2800\u2800\u2800\u2800\u2800\u2800\u2800\u2800\u2800\u2800\u2800\u2800": 2289, "\u285e\u285e\u284e": 2290, "\u280e\u2800\u2815\u280b\u2800": 2291, "\u284f\u2851\u2857": 2292, "\u284a\u284e\u285e": 2293, "\u283f\u283e": 2294, "\u2851\u282d\u281e\u2817\u2801\u2809\u281e\u2800": 2295, "\u280e\u2811\u280d\u280a\u2809\u2815\u2807\u2815\u281d": 2296, "\u2849\u2815\u2819\u2811\u2851\u2817\u2817\u2815\u2817": 2297, "\u280e\u281d\u280a\u280f\u280f\u2811\u281e": 2298, "\u2836\u2836\u2800\u2800\u2800\u2800\u2800\u2800\u2800\u2800\u2800\u2800\u2800\u2800\u2800\u2800\u2800\u2800\u2800\u2800\u283c\u2800": 2299, "\u281e\u283d\u280f\u2811\u2838": 2300, "\u280a\u2801\u2803\u2807\u2811": 2301, "\u280b\u2815\u2817\u2800\u280a\u2802\u2800": 2302, "\u282e\u2804": 2303, "\u2804\u2836\u2800": 2304, "\u285d\u2855\u285e\u2800": 2305, "\u284f\u2801\u281e\u2813\u2836": 2306, "\u2832\u280f\u2801\u2817\u2811\u281d\u281e": 2307, "\u283f\u2836\u2800": 2308, "\u2809\u281e\u2811": 2309, "\u2821\u280e\u282e\u2836\u2821\u283a\u282e": 2310, "\u280d\u2801\u281e\u2809\u2813\u2832\u281b\u2817\u2815\u2825\u280f\u2836\u2881\u2836": 2311, "\u283e\u2800\u2836\u2800\u2849\u2815\u280d\u280f\u2807\u2811\u281e\u280a\u2815\u281d\u2845\u280a\u281d\u2819\u2832": 2312, "\u2813\u2825\u280d\u2801\u281d\u2800": 2313, "\u2800\u2800\u2800\u2800\u2800\u2800\u2800\u2800\u283c\u2800": 2314, "\u2838\u280f\u2801\u281e\u281e\u2811\u2817\u281d": 2315, "\u2800\u2800\u2800\u2800\u2800\u2800\u2800\u2800\u2800\u2800\u2800\u2800\u2800\u2800\u2800\u2800\u2800\u2800\u2819\u2811\u280b\u2800": 2316, "\u2809\u2815\u280d\u280d\u2801\u281d\u2819\u2800": 2317, "\u2853\u280a\u281b\u2813\u2807\u280a": 2318, "\u2838\u284a": 2319, "\u2838\u284a\u2849\u2855\u285d": 2320, "\u2800\u2800\u2800\u2800\u2800\u2824\u2832": 2321, "\u2851\u2819\u280a\u281e": 2322, "\u2801\u2809\u281e\u280a\u2827\u2811\u2838\u280b\u280a\u2807\u2811": 2323, "\u2815\u2817\u2801\u281b\u2811": 2324, "\u2807\u280a\u281d\u2811\u2838\u280e\u281e\u2801\u2817\u281e": 2325, "\u2819\u2815\u2809\u280e\u281e\u2817\u280a\u281d\u281b": 2326, "\u2809\u2801\u2807\u2807\u2811\u2817": 2327, "\u2819\u2811\u280f\u2811\u281d\u2819\u2811\u281d\u2809\u280a\u2811\u280e": 2328, "\u2809\u2825\u2817\u2817\u2811\u281d\u281e\u2838\u280e\u2809\u2815\u280f\u2811": 2329, "\u284e\u283d\u280d\u2803\u2815\u2807\u285e\u283d\u280f\u2811\u2832": 2330, "\u280e\u2838\u2809\u2817\u2811\u2801\u281e\u2811\u2819": 2331, "\u2817\u2811\u2807\u2832": 2332, "\u284e\u284f\u2851": 2333, "\u284e\u284f\u2851\u2849\u284a": 2334, "\u284e\u284f\u2851\u2849\u284a\u2841\u2847": 2335, "\u281e\u283a\u2815\u2817\u2805": 2336, "\u2815\u2899": 2337, "\u2815\u2899\u281a": 2338, "\u280e\u2811\u2807\u280b\u2832\u2819\u2817\u280a\u2827\u2811\u2817": 2339, "\u280a\u2819\u2812\u2800\u282b": 2340, "\u281e\u2813\u2801\u281e\u2800": 2341, "\u281e\u2802\u2800": 2342, "\u280d\u2825\u2807\u281e\u280a\u280d\u2815\u2819\u2801\u2807": 2343, "\u2802\u2800\u2800\u2800\u2800\u2800\u2800": 2344, "\u284d\u2815\u2819\u2801\u2807\u280a\u281e\u283d": 2345, "\u2801\u2807\u2807\u2815\u283a": 2346, "\u2824\u2824\u2824\u2800\u2800\u2800\u2800\u2800\u2817\u2811\u281e\u2825\u2817\u281d\u2800": 2347, "\u280e\u283d\u280e\u281e\u2811\u280d": 2348, "\u280e\u2824": 2349, "\u2801\u2807\u280a\u281b\u281d": 2350, "\u2893\u2893": 2351, "\u283a\u2811\u2803": 2352, "\u2815\u280f\u2801\u2809\u280a\u281e\u283d\u2812\u2800\u289a\u2832": 2353, "\u280d\u2801\u2817\u281b\u280a\u281d\u2824\u281e\u2815\u280f": 2354, "\u2819\u280a\u280e\u280f\u2807\u2801\u283d\u2812\u2800\u280b\u2807\u2811\u282d\u2806\u2800\u2800\u2800\u2800\u2800\u2800\u2800\u2800\u2800\u2800\u2800\u2800\u2800": 2355, "\u2806\u2800\u2800\u2800\u2800\u2800\u2800\u2800\u2800\u2800\u283f\u2800\u2800\u2800\u2800\u2800\u2800\u2800\u2800\u2800": 2356, "\u2803\u2811\u281e": 2357, "\u289a\u280f\u282d\u2806\u2800\u2800\u2800\u2800\u2800\u2800\u2800\u2800\u2800\u2800\u2800\u2800\u2800": 2358, "\u280d\u2815\u2819\u2801\u2807\u280a\u281e\u283d\u2800": 2359, "\u2812\u2800\u281d\u2815\u281d\u2811": 2360, "\u281e\u2815\u281b\u281b\u2807\u2811": 2361, "\u2815\u281d\u2811\u2800": 2362, "\u280e\u280f\u2801\u281d": 2363, "\u2824\u2800\u2815\u281d": 2364, "\u2836\u2824\u281c": 2365, "\u2815\u2825\u2817\u2800": 2366, "\u2809\u2813\u2811\u2809\u2805": 2367, "\u2800\u2800\u2800\u2800\u2800\u2800\u2800\u2800\u2800\u283f": 2368, "\u2836\u2836\u2800\u282f\u2800\u2800\u2800\u2800\u2800\u2800\u2800\u2800\u2800\u2800\u2800\u2800\u2800": 2369, "\u2819\u2801\u281e\u2801\u2832": 2370, "\u2809\u281e\u2815\u2817": 2371, "\u2804\u2836\u2806\u2800\u2800\u2800\u2800\u2800\u2800\u2800\u2800\u2800\u2800\u2800\u2800\u2800": 2372, "\u2836\u281e\u2811\u282d\u281e\u2836": 2373, "\u285e\u2825\u2817\u281d": 2374, "\u2832\u2809\u2817\u2811\u2801\u281e\u2811": 2375, "\u285d\u2801\u280d\u2811": 2376, "\u280e\u281e\u2815\u280f": 2377, "\u2800\u281d\u2815\u281e\u2800": 2378, "\u2812\u2800\u282f\u2811": 2379, "\u280e\u2800\u2801\u281d\u2819\u2800": 2380, "\u280e\u2800\u281e\u2815\u2800": 2381, "\u2841\u2847\u2847": 2382, "\u281b\u2811\u281d\u2811\u2817\u2801\u281e\u2811\u2838": 2383, "\u2849\u2807\u280a": 2384, "\u2883\u289a\u289a": 2385, "\u2800\u2815\u280b\u2800": 2386, "\u280e\u2800\u2824\u2800": 2387, "\u2836\u280e\u2811\u281e\u281e\u280a\u281d\u281b\u280e\u2832": 2388, "\u280d\u2801\u280f\u280f\u280a\u281d\u281b": 2389, "\u285a\u2801\u2827\u2801\u284e\u2809\u2817\u280a\u280f": 2390, "\u2883\u2891\u288b": 2391, "\u281e\u283d\u280f\u280a\u281d\u281b\u2800\u280a\u280d\u280f\u2815\u2817\u281e\u2800\u2859\u280a\u2809\u281e\u2802\u2800\u2847\u280a\u280e\u281e\u2802\u2800": 2392, "\u2843\u2857\u2841\u284a\u2847\u2847\u2851\u2838\u2843": 2393, "\u2843\u2857\u2841\u284a\u2847\u2847\u2851\u2838\u2843\u2841\u284e\u2851": 2394, "\u2841\u284e\u2849\u2857\u284a\u284f\u285e": 2395, "\u2849\u2815\u280d\u280f\u2807\u2811": 2396, "\u283e\u2800\u2836\u2800\u282f": 2397, "\u280e\u2807": 2398, "\u2832\u280a\u281e\u2811\u280d\u280e\u2836\u2836": 2399, "\u2843\u2817\u2801\u280a\u2807\u2807\u2811\u2845\u2811\u283d\u283a\u2815\u2817\u2819": 2400, "\u2824\u2802\u2800\u2824\u2803\u2825\u280a\u2807\u281e\u280a\u281d": 2401, "\u280a\u281d\u280e\u281e\u2801\u281d": 2402, "\u2819\u2811\u280b\u280a\u281d": 2403, "\u287a\u2853\u2851\u2857": 2404, "\u287a\u2853\u2851\u2857\u2851": 2405, "\u285e\u2851\u2857": 2406, "\u2847\u2851\u285e\u2851": 2407, "\u284e\u2865": 2408, "\u2809\u2813\u2801\u2817\u2800\u280a\u281d\u2800": 2409, "\u2809\u2815\u2819\u2811\u2800\u2836\u2800": 2410, "\u280e\u280f\u2811\u2809\u280a\u280b\u280a\u2809\u2800": 2411, "\u280e\u2836\u280e\u2811\u2807\u280b\u2802\u2800": 2412, "\u2801\u2817\u2811\u2800": 2413, "\u2815\u280f\u2811\u281d\u2838": 2414, "\u281d\u2825\u280d\u2803\u2811\u2817": 2415, "\u2824\u2824\u2824\u2800\u2800\u2800\u2800\u2800\u2800\u2800\u2800\u2800\u280a\u280b\u2800\u281d\u2815\u281e\u2800": 2416, "\u281e\u2815\u281e\u2801\u2807\u2838": 2417, "\u2836\u280e\u2811\u2807\u280b\u2832\u2838": 2418, "\u2838\u2813\u280a\u280e\u281e\u2815\u2817\u283d\u2832\u2801\u280f\u280f\u2811\u281d\u2819\u2836": 2419, "\u284e\u280f\u2811\u2811\u2809\u2813": 2420, "\u2809\u2817\u2811\u2801\u281e\u2811\u2800": 2421, "\u2812\u2800\u2824\u2800": 2422, "\u283f\u2802\u2800\u2800\u2800\u2800\u2800\u2800\u2800\u2800\u2800\u2800\u2800\u2800\u2800\u2800\u2800\u2800\u2800\u2800\u2800\u2800\u2800\u282f\u2824\u281e\u283d\u280f\u2811\u2824\u2812\u2800\u2824\u2827\u280a\u2803\u2817\u2801\u281e\u2811\u2824\u2802\u2800\u2824\u2819\u2825\u2817\u2801\u281e\u280a\u2815\u281d\u2824\u2812\u2800": 2423, "\u2802\u2800\u2800\u2800\u2800\u2800\u2800\u2800\u2800\u2800\u283f": 2424, "\u280e\u2812\u2800\u2847\u280a\u280e\u281e\u282e": 2425, "\u2847\u280a\u281d": 2426, "\u2847\u280a\u280e\u281e\u282e\u280e\u281e\u2817": 2427, "\u2836\u2800\u2800\u2800\u2800\u2800\u2800\u2800\u2800\u2800\u2800\u2800\u2800\u2800\u280a\u2819\u2836": 2428, "\u2800\u2800\u2800\u2800\u2800\u2800\u2800\u2800\u2800\u2800\u2800\u2800\u2800\u2800\u2800\u2800\u2800\u2800\u2800\u2800\u2800\u2800\u2800\u2800\u2800\u2824": 2429, "\u283f\u2800\u2800\u2800\u2800\u2800\u2800\u2800\u2800\u2800\u2800\u2800\u2800\u2800\u2800\u2800\u2800\u2800": 2430, "\u284f\u2801\u281e\u2813\u2836\u2838\u2838": 2431, "\u284f\u2801\u281e\u2813\u2836\u2838\u2838\u280b\u280a\u2807\u2811": 2432, "\u284f\u2801\u281e\u2813\u2836\u2838\u2838\u280b\u280a\u2807\u2811\u2838\u2838": 2433, "\u284f\u2801\u281e\u2813\u2836\u2838\u2838\u280b\u280a\u2807\u2811\u2838\u2838\u2836\u2832": 2434, "\u2817\u2811\u280e\u2825\u2807\u281e\u2824\u280e\u2811": 2435, "\u2817\u2811\u280e\u2825\u2807\u281e\u2824\u280e\u2811\u2809\u281e\u280a\u2815\u281d": 2436, "\u2800\u2800\u2800\u2800\u2800\u2800\u2800\u2800\u2800\u2800\u2800\u2800\u2800\u2800\u2800\u2800\u2800\u2800\u2800\u2800\u2800\u2800\u2800\u2800\u2800\u2823": 2437, "\u2801\u2819\u2800": 2438, "\u2867\u280a\u280e": 2439, "\u284e\u2801\u2827\u2811\u2800": 2440, "\u280a\u281d\u280e\u2811\u2817\u281e\u2836": 2441, "\u2803\u2817\u2801\u280a\u2807\u2807\u2811\u2838\u280a\u2809\u2815\u281d": 2442, "\u2819\u2811\u280b\u280a\u281d\u280a\u281e": 2443, "\u2819\u2811\u280b\u280a\u281d\u280a\u281e\u280a\u2815\u281d": 2444, "\u2809\u2815\u281d\u2819\u280a\u281e\u280a\u2815\u281d": 2445, "\u2836\u2800\u2800\u2800\u2800\u2800\u2800\u2800\u2800\u2800\u2800\u2800\u2800\u2800\u2800\u2800\u2800\u2800\u2800\u2800\u2800\u2800\u2800\u2800\u2800\u2800": 2446, "\u280f\u2817\u2811\u280b\u280a\u282d\u2838\u2807\u2815\u283a\u2811\u2817": 2447, "\u2809\u2815\u281d\u281e\u2811\u281d\u281e\u2836\u2812\u2800\u2800\u2800\u2800\u2800\u2800\u2800\u2800\u2800\u2800\u2800\u2800\u2800\u2800\u2800\u2800\u2800\u280e\u283d\u280d\u2803\u2815\u2807\u280e\u282e": 2448, "\u2809\u2815\u281d\u281e\u2811\u281d\u281e\u2836\u2812\u2800\u2800\u2800\u2800\u2800\u2800\u2800\u2800\u2800\u2800\u2800\u2800\u2800\u2800\u2800\u2800\u2800\u280e\u283d\u280d\u2803\u2815\u2807\u280e\u282e\u280d\u2801\u281e\u2809\u2813\u2832\u281b\u2817\u2815\u2825\u280f\u2836\u2881\u2836": 2449, "\u2809\u2815\u281d\u281e\u2811\u281d\u281e\u2836\u2812\u2800\u2800\u2800\u2800\u2800\u2800\u2800\u2800\u2800\u2800\u2800\u2800\u2800\u2800\u2800\u2800\u2800\u280e\u283d\u280d\u2803\u2815\u2807\u280e\u282e\u280d\u2801\u281e\u2809\u2813\u2832\u281b\u2817\u2815\u2825\u280f\u2836\u2881\u2836\u283e\u2800\u2836\u2800\u2849\u2815\u280d\u280f\u2807\u2811\u281e\u280a\u2815\u281d\u2845\u280a\u281d\u2819\u2832": 2450, "\u2826\u2812": 2451, "\u2800\u2800\u2800\u2800\u2800\u2800\u2800\u2800\u2800\u2800\u2800\u2800\u2800\u2800\u2800\u2800\u2800\u2800\u2800\u2800\u2800\u2800\u2800\u2800\u2800\u2800\u2811\u2807\u280a\u280b\u2800": 2452, "\u280e\u2811\u2807\u2811\u2809\u281e\u2811": 2453, "\u280e\u2811\u2807\u2811\u2809\u281e\u2811\u2819\u2838": 2454, "\u2812\u2812\u2812\u2812\u2812\u2812\u2812\u2812": 2455, "\u2819\u2811\u2800": 2456, "\u2811\u2819\u280a\u281e": 2457, "\u281b\u2817\u2801\u280f\u2813\u2800": 2458, "\u2841\u281d\u2801\u2807\u283d\u2835\u2811\u2817": 2459, "\u2838\u285d\u2851": 2460, "\u2809\u2807\u2811\u2801\u2817": 2461, "\u285e\u2801\u280e\u2805\u284e\u281e\u2801\u281e\u2825\u280e\u2832": 2462, "\u2838\u284f": 2463, "\u283f\u2800\u2800": 2464, "\u281e\u283d\u280f\u2811\u2836\u285d\u2815\u2819\u2811": 2465, "\u2807\u280a\u281d\u2811\u2838\u2809\u2815\u2825\u281d\u281e": 2466, "\u280e\u2811\u2807\u280b\u2832\u2809\u2825\u2817\u280e\u2815\u2817\u2838\u2809\u2815\u2807\u2800": 2467, "\u2824\u2836\u2800\u2881": 2468, "\u2836\u280e\u2811\u2807\u280b\u2832\u2809\u2825\u2817\u280e\u2815\u2817\u2838\u2807\u280a\u281d\u2811": 2469, "\u2836\u280e\u2811\u2807\u280b\u2832\u2809\u2825\u2817\u280e\u2815\u2817\u2838\u2809\u2815\u2807": 2470, "\u2801\u2809\u281e\u280a\u2827\u2811\u2838\u280b\u280a\u2807\u2811\u2838\u280a\u2819": 2471, "\u280f\u2817\u2815\u281a\u2811\u2809\u281e\u2832": 2472, "\u280e\u281e\u2815\u2817\u2801\u281b\u2811": 2473, "\u281e\u283d\u280f\u2811\u2832\u2827\u2801\u2807\u2825\u2811": 2474, "\u2836\u281d\u2815\u2819\u2811": 2475, "\u2807\u280a\u281d\u2811\u281d": 2476, "\u281b\u2817\u2801\u280f\u2813\u2832": 2477, "\u2804\u2802\u2800\u285e\u2815\u2805\u2811\u281d\u285e\u283d\u280f\u2811\u2832": 2478, "\u2817\u2811\u2819\u2815": 2479, "\u284a\u285d\u2859": 2480, "\u284a\u285d\u2859\u284a\u2849": 2481, "\u284a\u285d\u2859\u284a\u2849\u2841\u285e\u2855\u2857": 2482, "\u2811\u2819\u281b\u2811\u2838\u2819\u2801\u281e\u2801\u2832\u281b\u2811\u281e\u2836\u2804": 2483, "\u283a\u280a\u281e\u2813\u2800\u280e\u2811\u2807\u280b\u2832\u2819\u2817\u280a\u2827\u2811\u2817": 2484, "\u283a\u280a\u281e\u2813\u2800\u280e\u2811\u2807\u280b\u2832\u2819\u2817\u280a\u2827\u2811\u2817\u2832\u280e\u2811\u280e\u280e\u280a\u2815\u281d": 2485, "\u283a\u280a\u281e\u2813\u2800\u280e\u2811\u2807\u280b\u2832\u2819\u2817\u280a\u2827\u2811\u2817\u2832\u280e\u2811\u280e\u280e\u280a\u2815\u281d\u2836\u2836\u2800": 2486, "\u283a\u280a\u281e\u2813\u2800\u280e\u2811\u2807\u280b\u2832\u2819\u2817\u280a\u2827\u2811\u2817\u2832\u280e\u2811\u280e\u280e\u280a\u2815\u281d\u2836\u2836\u2800\u2801\u280e\u2800": 2487, "\u283a\u280a\u281e\u2813\u2800\u280e\u2811\u2807\u280b\u2832\u2819\u2817\u280a\u2827\u2811\u2817\u2832\u280e\u2811\u280e\u280e\u280a\u2815\u281d\u2836\u2836\u2800\u2801\u280e\u2800\u280e\u2811\u280e\u280e\u280a\u2815\u281d": 2488, "\u280e\u2811\u280e\u280e\u280a\u2815\u281d\u2832\u2817\u2825\u281d\u2836": 2489, "\u2865\u281d\u280a\u280b\u280a\u2811\u2819\u2800": 2490, "\u2841\u284f\u284a": 2491, "\u280f\u2817\u2815\u2803": 2492, "\u284b\u2815\u2817": 2493, "\u287a\u2811\u2803": 2494, "\u287a\u2811\u2803\u284e": 2495, "\u287a\u2811\u2803\u284e\u2815\u2809\u2805\u2811": 2496, "\u2849\u2855\u2857": 2497, "\u2855\u2825\u281e\u280f\u2825\u281e\u284f\u2817\u2811\u280b": 2498, "\u281e\u2811\u282d\u281e\u2824": 2499, "\u283e\u2800\u2836\u2800\u285d\u2815\u281d\u2811\u2800\u2800\u2800\u2800\u2800": 2500, "\u2803\u2817\u2801\u280a\u2807\u2807\u2811\u2838\u2811\u281d\u2801\u2803\u2807\u2811\u2819": 2501, "\u2801\u2825\u281e\u2815\u2838": 2502, "\u2813\u281e": 2503, "\u2813\u281e\u280d": 2504, "\u2813\u2811\u280a\u281b\u2813\u281e": 2505, "\u2803\u2817\u2801\u280a\u2807\u2807\u2811\u2824": 2506, "\u280e\u280f\u2801\u2809": 2507, "\u2832\u280e\u2825\u2803": 2508, "\u2801\u281e\u2815\u2817\u2800": 2509, "\u289a\u2832\u2889": 2510, "\u280f\u282d\u2800\u280e": 2511, "\u280f\u282d\u2800\u280e\u2815\u2807": 2512, "\u280f\u282d\u2800\u280e\u2815\u2807\u280a\u2819\u2800": 2513, "\u2881\u288b": 2514, "\u289b\u2802": 2515, "\u2807\u2811\u280b": 2516, "\u2893\u280f\u282d\u2806\u2800\u2800\u2800\u2800\u2800\u2800\u2800\u2800\u2800\u2800\u2800\u2800\u2800": 2517, "\u280f\u2815\u280a\u281d": 2518, "\u280f\u2825\u2807": 2519, "\u281e\u2815\u281b\u281b\u2807\u2811\u2824": 2520, "\u283d\u2811\u2817": 2521, "\u2823\u280c\u2819\u280a\u2827\u281c\u2800\u2800\u2800\u2800\u2800\u2800\u2800\u2800\u2800\u2800\u2800\u2800\u2800": 2522, "\u280e\u2825\u2803": 2523, "\u280d\u2815\u2819\u2801\u2807\u280a\u281e\u280a\u2811\u280e\u2800": 2524, "\u2809\u2807\u280a\u2809\u2805": 2525, "\u2809\u2813\u2801\u281d": 2526, "\u2836\u2836\u2806": 2527, "\u2851\u2801\u2809\u2813": 2528, "\u2809\u2807\u2801\u280e\u280e\u2847\u280a\u280e\u281e": 2529, "\u2836\u2836\u2836\u2800": 2530, "\u2833\u2833": 2531, "\u281e\u2811\u282d\u281e\u2800\u2836\u2800": 2532, "\u283f\u2800\u2809\u2801\u281e\u2809\u2813": 2533, "\u283f\u2800\u2809\u2801\u281e\u2809\u2813\u2800\u2836": 2534, "\u2809\u2815\u281d\u280e": 2535, "\u2815\u2807\u2811": 2536, "\u2801\u2827\u2801\u280a\u2807": 2537, "\u2801\u2827\u2801\u280a\u2807\u2801\u2803\u2807\u2811": 2538, "\u2836\u2836\u2836": 2539, "\u2859\u2801\u281e\u2801": 2540, "\u281e\u2815\u2838\u2819\u280a\u2809\u281e": 2541, "\u287d\u2800": 2542, "\u2836\u2800\u2800\u2800\u2800\u2800\u2800\u2800\u2800\u2800\u2811\u2807\u280e\u2811": 2543, "\u2811\u282d\u2809\u2811\u280f\u281e\u2800\u2851\u282d\u2809\u2811\u280f\u281e\u280a\u2815\u281d\u2800\u2801\u280e\u2800\u2811\u2812\u2800\u2800\u2800\u2800\u2800\u2800\u2800\u2800\u2800": 2544, "\u2811\u282d\u2809\u2811\u280f\u281e\u2800\u2851\u282d\u2809\u2811\u280f\u281e\u280a\u2815\u281d\u2800\u2801\u280e\u2800\u2811\u2812\u2800\u2800\u2800\u2800\u2800\u2800\u2800\u2800\u2800\u2807\u2815\u281b\u281b\u2811\u2817\u2832": 2545, "\u284b\u2815\u2817\u2800": 2546, "\u281b\u2811\u281e\u2800": 2547, "\u2807\u2815\u2815\u280f": 2548, "\u2824\u2824\u2824\u2800\u284e\u2841\u2847\u2800": 2549, "\u2893\u2824\u2859\u2815": 2550, "\u2893\u2824\u2859\u2815\u281e\u2800": 2551, "\u2811\u281d\u2825\u280d\u2800\u280a\u280d\u280f\u2815\u2817\u281e\u2800": 2552, "\u2836\u280e\u281e\u2817\u2802\u2800": 2553, "\u2836\u280e\u281e\u2817\u2802\u2800\u2851\u281d\u2825\u280d": 2554, "\u2836\u280e\u281e\u2817\u2802\u2800\u2851\u281d\u2825\u280d\u2836\u2812\u2800\u2800\u2800\u2800\u2800\u2824\u2824\u2824": 2555, "\u2857\u2865\u284e\u285e": 2556, "\u2859\u280a\u2809\u281e\u282e\u280e\u281e\u2817\u2802\u2800\u280e\u281e\u2817": 2557, "\u2804\u2802\u2800\u2800\u2800\u2800\u2800\u2800\u283c\u2800": 2558, "\u2812\u2800\u2800\u2800\u2800\u2800\u2824\u2824\u2824\u2841\u2800": 2559, "\u2832\u2800\u2800\u2800\u2800\u2800\u2824\u2824\u2824": 2560, "\u2811\u282d\u2809\u2811\u280f\u281e": 2561, "\u280e\u283a\u280a\u281e\u2809\u2813": 2562, "\u2847\u2801\u281d\u281b\u2825\u2801\u281b\u2811\u2832\u285a\u2841\u2867\u2841\u284e\u2849\u2857\u284a\u284f\u285e": 2563, "\u284e\u2851\u2847\u2851": 2564, "\u2859\u2851\u2857": 2565, "\u2851\u284e": 2566, "\u285e\u284a\u284d\u2851\u284e\u285e\u2841": 2567, "\u285e\u284a\u284d\u2851\u284e\u285e\u2841\u284d\u284f": 2568, "\u2804\u2804\u2832\u281a\u2815\u280a\u281d\u2836": 2569, "\u2836\u2812\u2800\u2800\u2800\u2800\u2800\u2800\u2800\u2800\u2800\u2800\u2800\u2800\u2800\u2800\u2800\u2800\u2800": 2570, "\u2800\u2800\u2800\u2800\u2800\u2800\u2800\u2800\u2800\u2800\u2800\u2800\u2800\u2800\u2800\u2800\u2800\u280a\u280b\u2800": 2571, "\u2817\u2811\u281e\u2825\u2817\u281d\u2800\u285e\u2817\u2825\u2811": 2572, "\u2800\u2800\u2800\u2800\u2800\u2800\u2800\u2800\u2800\u2811\u2807\u280a\u280b\u2800": 2573, "\u2825\u2807\u281e\u2800": 2574, "\u2801\u2817\u281b\u280e": 2575, "\u2807\u2801\u281d\u281b\u2825\u2801\u281b\u2811\u2832\u2827\u2801\u2807\u2825\u2811": 2576, "\u2832\u280e\u280f\u2807\u280a\u281e\u2836\u2804\u2821\u281d": 2577, "\u285e\u285e\u284e\u2800": 2578, "\u280f\u2817\u2815\u2827\u280a\u2819\u2811\u2817": 2579, "\u2812\u2800\u280e\u281e\u2817\u2800\u2836\u2800\u2824\u2824\u2800\u2800\u2800\u2800\u2800": 2580, "\u283e\u2800\u2800": 2581, "\u2836\u280e\u2811\u2807\u280b\u2836\u2800\u2824\u281c\u2800\u2847\u280a\u280e\u281e\u282e": 2582, "\u281e\u2811\u2817\u2800": 2583, "\u2812\u2800\u2859\u280a\u2809\u281e": 2584, "\u2804\u2836\u2812\u2800\u289a\u282d\u2899": 2585, "\u2804\u2836\u2812\u2800\u289a\u282d\u2891": 2586, "\u2881\u2832\u289a": 2587, "\u2832\u280e\u2815\u2825\u2817\u2809\u2811": 2588, "\u2812\u2800\u280e\u281e\u2817\u2802\u2800\u2800\u2800\u2800\u2800\u2800\u2800\u2800\u2800": 2589, "\u283a\u2817\u280a\u281e\u2811": 2590, "\u2800\u2800\u2800\u2800\u2800\u2800\u2800\u2800\u2800\u2800\u2800\u2800\u2800\u2800\u2801\u280e\u283d\u281d\u2809\u2800\u2819\u2811\u280b\u2800\u2838": 2591, "\u281b\u2800": 2592, "\u2851\u286d\u284a\u284e\u285e": 2593, "\u280e\u2800\u2836\u2800\u282e\u283e\u2800\u2800\u2800\u2800\u2800\u2800\u2800\u2800\u2800": 2594, "\u2809\u2813\u2801\u2817\u2800\u2836\u2836\u2800": 2595, "\u2859\u2811\u2803\u2825": 2596, "\u280b\u2817\u2815\u280d\u2800\u2819\u2801\u281e\u2801\u2809\u2807\u2801\u280e\u280e\u2811\u280e\u2800\u280a\u280d\u280f\u2815\u2817\u281e\u2800": 2597, "\u2809\u2815\u2817\u2811\u2800\u280a\u280d\u280f\u2815\u2817\u281e\u2800": 2598, "\u283f\u2802\u2800\u2800\u2800\u2800\u2800\u2800\u2800\u2800\u2800\u2800\u2800\u2800\u2800\u2800\u2800\u2800\u2800\u2800\u2800\u2800\u2800\u282f\u2824\u281e\u283d\u280f\u2811\u2824\u2812\u2800\u2824\u280f\u2801\u2825\u280e\u2811\u2824\u2802\u2800\u2824\u2819\u2825\u2817\u2801\u281e\u280a\u2815\u281d\u2824\u2812\u2800": 2599, "\u2832\u2809\u2815\u2825\u281d\u281e": 2600, "\u2800\u2800\u2800\u2800\u2800\u2800\u2800\u2800\u2800\u2800\u2800\u2800\u2800\u2800\u2800\u2800\u2800\u2800\u2800\u2800\u2800\u2800\u2800\u2800\u2800\u2800\u2800\u2800\u2800\u2800\u283c\u2800": 2601, "\u2807\u280a\u281d\u2811\u2832\u280e\u281e\u2817\u280a\u280f\u2836\u2836": 2602, "\u2893\u2824\u2819\u2815\u281e\u2800\u2803\u2817\u2801\u280a\u2807\u2807\u2811\u2800\u281e\u2813\u2815\u2825\u281b\u2813\u281e\u2800": 2603, "\u2819\u2801\u281e\u2811\u281e\u280a\u280d\u2811\u2800": 2604, "\u2819\u2801\u281e\u2801\u2809\u2807\u2801\u280e\u280e": 2605, "\u283e\u2800\u2836\u2800\u280b\u280a\u2811\u2807\u2819\u2836\u2819\u2811\u280b\u2801\u2825\u2807\u281e\u2838\u280b\u2801\u2809\u281e\u2815\u2817\u283d\u2836\u2807\u280a\u280e\u281e": 2606, "\u283e\u2800\u2836\u2800\u282e\u283e\u2800\u2800\u2800\u2800\u2800\u2800\u2800\u2800\u2800\u280e\u2811\u2807\u280b\u2832": 2607, "\u2800\u2836\u2800\u2824\u2824": 2608, "\u2859\u280a\u2809\u281e\u282e\u280e\u281e\u2817\u2802\u2800\u2841\u281d\u283d\u283e\u2812\u2800\u2800\u2800\u2800\u2800\u2800\u2800\u2800\u2800\u2824\u2824\u2824": 2609, "\u2809\u2811\u280e\u280e\u280a\u2803": 2610, "\u2809\u2811\u280e\u280e\u280a\u2803\u280a\u2807": 2611, "\u2857\u2811\u281f\u2825\u2811\u280e\u281e": 2612, "\u280d\u2801\u2817\u283d": 2613, "\u2819\u2811\u281e\u2811": 2614, "\u280e\u283d\u280e\u2832\u280f\u2801\u281e\u2813\u2832": 2615, "\u280e\u283d\u280e\u2832\u280f\u2801\u281e\u2813\u2832\u280a\u281d\u280e\u2811\u2817\u281e\u2836": 2616, "\u280e\u283d\u280e\u2832\u280f\u2801\u281e\u2813\u2832\u280a\u281d\u280e\u2811\u2817\u281e\u2836\u289a\u2802\u2800": 2617, "\u280e\u283d\u280e\u2832\u280f\u2801\u281e\u2813\u2832\u280a\u281d\u280e\u2811\u2817\u281e\u2836\u289a\u2802\u2800\u280e\u281e\u2817\u2836": 2618, "\u280e\u283d\u280e\u2832\u280f\u2801\u281e\u2813\u2832\u280a\u281d\u280e\u2811\u2817\u281e\u2836\u289a\u2802\u2800\u280e\u281e\u2817\u2836\u284f\u2801\u281e\u2813\u2836\u2838\u2838\u280b\u280a\u2807\u2811\u2838\u2838\u2836\u2832": 2619, "\u280e\u283d\u280e\u2832\u280f\u2801\u281e\u2813\u2832\u280a\u281d\u280e\u2811\u2817\u281e\u2836\u289a\u2802\u2800\u280e\u281e\u2817\u2836\u284f\u2801\u281e\u2813\u2836\u2838\u2838\u280b\u280a\u2807\u2811\u2838\u2838\u2836\u2832\u280f\u2801\u2817\u2811\u281d\u281e": 2620, "\u2802\u2800\u2800\u2800\u2800\u2800\u2800\u2800\u2800\u2800\u2800\u2800\u2800\u2800\u2849\u2815\u280d\u280f\u2807\u2811\u281e\u280a\u2815\u281d\u2845\u280a\u281d\u2819\u2832": 2621, "\u2800\u2800\u2800\u2800\u2800\u2824\u2800": 2622, "\u2812\u2800\u282e": 2623, "\u282f\u2821\u281d\u2800\u2800\u2800\u2800\u282b\u282f\u289a\u283f\u2821\u281d\u283f\u2824\u2802\u2800\u2824": 2624, "\u2859\u2811\u2807\u2811": 2625, "\u280d\u2801\u281e\u2809\u2813\u2811\u280e": 2626, "\u280d\u2801\u281e\u2809\u2813\u2800\u280a\u281d\u2800\u2817\u2811\u2832\u280b\u280a\u281d\u2819\u280a\u281e\u2811\u2817\u2836\u2817\u2804": 2627, "\u2836\u2804\u2802\u2800\u2809\u2815\u281d\u281e\u2811\u281d\u281e\u2836\u2812\u2800\u2800\u2800\u2800\u2800\u2800\u2800\u2800\u2800\u2800\u2800\u2800\u2800\u2800\u2800\u2800\u2800\u280e\u283d\u280d\u2803\u2815\u2807\u280e\u282e\u280d\u2801\u281e\u2809\u2813\u2832\u281b\u2817\u2815\u2825\u280f\u2836\u2881\u2836\u283e\u2800\u2836\u2800\u2849\u2815\u280d\u280f\u2807\u2811\u281e\u280a\u2815\u281d\u2845\u280a\u281d\u2819\u2832": 2628, "\u2807\u280a\u281d\u2811\u282e\u2812": 2629, "\u280e\u2811\u2807\u2811\u2809\u281e\u2811\u2819\u2838\u280a\u281d\u2819\u2811\u282d": 2630, "\u2821\u281d\u2824\u2832\u281a\u2815\u280a\u281d\u2836": 2631, "\u2849\u2807\u2801\u2817\u280a\u280b\u280a\u2809\u2801\u281e\u280a\u2815\u281d": 2632, "\u2841\u285e\u284a\u2855\u285d": 2633, "\u284a\u2847\u2851": 2634, "\u280e\u2800\u2836\u2800\u285e\u2801\u280e\u2805\u284e\u281e\u2801\u281e\u2825\u280e\u2832": 2635, "\u281a\u2811\u2809\u281e\u2800": 2636, "\u280f\u2817\u2815\u280d\u280f\u281e\u2800\u2836\u2800\u280b\u2824\u2824\u2824": 2637, "\u2836\u280f\u2817\u2815\u280d\u280f\u281e": 2638, "\u2849\u2825\u2817": 2639, "\u2809\u2815\u280d\u280d\u2811\u281d\u281e": 2640, "\u2809\u2817\u2811\u2801\u281e\u2811\u2838\u2817\u2811\u2807\u2801\u281e\u280a\u2815\u281d\u280e\u2813\u280a\u280f": 2641, "\u280f\u2801": 2642, "\u280a\u281e\u2811\u280d\u2838\u281e\u283d\u280f\u2811\u2800\u2836\u2836\u2800": 2643, "\u280a\u281e\u2811\u280d\u2838\u281e\u283d\u280f\u2811\u2800\u2836\u2836\u2800\u284d\u2811\u281d\u2825\u284a\u281e\u2811\u280d\u285e\u283d\u280f\u2811\u2832": 2644, "\u2824\u2802\u2800\u2800\u2800\u2800\u2800\u283c\u2800": 2645, "\u2843\u2817\u2801\u280a\u2807\u2807\u2811\u284b\u280a\u2807\u2811": 2646, "\u280e\u2811\u281e\u2838": 2647, "\u281e\u2811\u282d\u281e\u2838\u2809\u2815\u280d\u280d\u2801\u281d\u2819": 2648, "\u2809\u2813\u2801\u281e": 2649, "\u2809\u2815\u281d\u281e\u2811\u282d\u281e\u282e\u2824": 2650, "\u2807\u280a\u281d\u2811\u2838\u2811\u281d\u2819": 2651, "\u284a\u281d\u280b\u2815": 2652, "\u281e\u2815\u2805\u2811\u281d\u2838\u281e\u283d\u280f\u2811": 2653, "\u2824\u2812\u2800\u285e\u2815\u2805\u2811\u281d\u285e\u283d\u280f\u2811\u2832\u2849\u2855\u285d\u284e\u285e\u2841\u285d\u285e\u2802\u2800\u2824": 2654, "\u2815\u2805\u280d\u2801\u2817\u2805": 2655, "\u285b\u2817\u2801\u280f\u2813\u284e\u281e\u2815\u2817\u2811": 2656, "\u2819\u2803\u2838\u280f\u2801\u281e\u2813": 2657, "\u2812\u2800\u2800\u2800\u2800\u2800\u2800\u2800\u2800\u2800\u283a\u280a\u281e\u2813\u2800\u280e\u2811\u2807\u280b\u2832\u2819\u2817\u280a\u2827\u2811\u2817\u2832\u280e\u2811\u280e\u280e\u280a\u2815\u281d\u2836\u2836\u2800\u2801\u280e\u2800\u280e\u2811\u280e\u280e\u280a\u2815\u281d": 2658, "\u2812\u2800\u2800\u2800\u2800\u2800\u2800\u2800\u2800\u2800\u283a\u280a\u281e\u2813\u2800\u280e\u2811\u2807\u280b\u2832\u2819\u2817\u280a\u2827\u2811\u2817\u2832\u280e\u2811\u280e\u280e\u280a\u2815\u281d\u2836\u2836\u2800\u2801\u280e\u2800\u280e\u2811\u280e\u280e\u280a\u2815\u281d\u2812\u2800\u2800\u2800\u2800\u2800\u2800\u2800\u2800\u2800\u2800\u2800\u2800\u2800": 2659, "\u280e\u2801\u2807\u2824\u2827\u2815\u280a\u2809\u2811\u2800": 2660, "\u284d\u2825\u2807\u281e": 2661, "\u2825\u281d\u280a\u280b\u280a\u2811\u2819\u2800": 2662, "\u2809\u2815\u281d\u2827\u2811\u2817\u280e\u2801\u281e\u280a\u2815\u281d\u2800": 2663, "\u2843\u2801\u280e\u2811": 2664, "\u2865\u281d\u280a\u280b\u280a\u2811\u2819": 2665, "\u2807\u2815\u281b\u281b\u2811\u2817\u2832\u280a\u281d\u280b\u2815\u2836\u2824": 2666, "\u2820\u280e\u2801\u2807\u2838": 2667, "\u284e\u2813": 2668, "\u2809\u2807\u2815\u280e\u2811\u2836\u2836": 2669, "\u284d\u2815\u2819\u2811\u2807": 2670, "\u2811\u281d\u2809\u2811\u2800": 2671, "\u280d\u2825\u2807\u281e\u2801\u281d": 2672, "\u280d\u2825\u2807\u281e\u2801\u281d\u2811": 2673, "\u2811\u280d\u2806\u2800\u2800\u2800\u2800\u2800\u2800\u2800\u2800\u2800\u2800\u2800\u2800\u2800": 2674, "\u2812\u2800\u2883\u289a\u280f\u282d\u2806\u2800\u2800\u2800\u2800\u2800\u2800\u2800\u2800\u2800\u2800\u2800\u2800\u2800": 2675, "\u2812\u2800\u2881\u280f\u282d\u2800\u280e\u2815\u2807\u280a\u2819\u2800": 2676, "\u2817\u280a\u281b\u2813\u281e": 2677, "\u2801\u2817\u2811": 2678, "\u2809\u2825\u2817\u280e\u2815\u2817\u2812\u2800": 2679, "\u281e\u2815\u281b\u281b\u2807\u2811\u2824\u2807\u2801\u2803\u2811\u2807": 2680, "\u284e\u2811\u280e": 2681, "\u284e\u2811\u280e\u280e\u280a\u2815\u281d": 2682, "\u283f\u2800\u2800\u2800\u2800\u2800": 2683, "\u2867\u2815\u280a\u2809\u2811": 2684, "\u280e\u280f\u2801\u281d\u281c": 2685, "\u281e\u283d\u280f\u2811\u2802\u2800": 2686, "\u2809\u2815\u281d\u281e\u2811\u282d\u281e\u2832": 2687, "\u2824\u2800\u2815\u281d\u2809\u2807\u280a\u2809\u2805": 2688, "\u2824\u2800\u2815\u281d\u2809\u2807\u280a\u2809\u2805\u2836\u2824": 2689, "\u2823\u280c\u2803\u2825\u281e\u281e\u2815\u281d": 2690, "\u285e\u283d\u280f\u2811\u2800": 2691, "\u284d\u2811\u280e\u280e\u2801\u281b\u2811": 2692, "\u280e\u281e\u2801\u2817\u281e\u2800": 2693, "\u280e\u2811\u280e\u280e\u280a\u2815\u281d\u284a\u2819": 2694, "\u280a\u280e\u2857\u2811\u2809\u2815\u2817\u2819\u280a\u281d\u281b": 2695, "\u284f\u2855": 2696, "\u284f\u2855\u284e\u285e": 2697, "\u2836\u2800\u282f\u2800\u2800\u2800\u2800\u2800\u2800\u2800\u2800\u2800\u2800\u2800\u2800\u2800": 2698, "\u281e\u2817\u280a": 2699, "\u282f\u2800\u2800\u2800\u2800\u2800\u2800\u2800\u2800\u2800\u2800\u2800\u2800\u2800\u2800\u2800\u2800\u2800\u2809\u2815\u281d\u280e\u281e\u2800": 2700, "\u2800\u280a\u280b\u2800": 2701, "\u2827\u280a\u281b": 2702, "\u2809\u2811\u280e\u280e\u2800": 2703, "\u2800\u2800\u2800\u2808\u2801\u280f\u280f\u2832\u280f\u2815\u280e\u281e": 2704, "\u2800\u2800\u2800\u2808\u2801\u280f\u280f\u2832\u280f\u2815\u280e\u281e\u2836\u2824": 2705, "\u2800\u2800\u2800\u2808\u2801\u280f\u280f\u2832\u280f\u2815\u280e\u281e\u2836\u2824\u280c\u2801\u280f\u280a\u280c": 2706, "\u2824\u2836\u2800\u2801\u280e\u283d\u281d\u2809\u2800\u2819\u2811\u280b\u2800": 2707, "\u2836\u2812\u2800\u2800\u2800\u2800\u2800\u2824\u2824\u2824\u2800\u2800\u2800\u2800\u2800": 2708, "\u280a\u281d\u280f\u2825\u281e\u2838\u280d\u2815\u2819\u2801\u2807\u280a\u281e\u283d": 2709, "\u2811\u282d\u2809\u2811\u280f\u281e\u2800\u2851\u282d\u2809\u2811\u280f\u281e\u280a\u2815\u281d\u2800\u2801\u280e\u2800\u2811\u2812\u2800\u2800\u2800\u2800\u2800\u2800\u2800\u2800\u2800\u2807\u2815\u281b\u281b\u2811\u2817\u2832\u2811\u2817\u2817\u2815\u2817": 2710, "\u2811\u282d\u2809\u2811\u280f\u281e\u2800\u2851\u282d\u2809\u2811\u280f\u281e\u280a\u2815\u281d\u2800\u2801\u280e\u2800\u2811\u2812\u2800\u2800\u2800\u2800\u2800\u2800\u2800\u2800\u2800\u2807\u2815\u281b\u281b\u2811\u2817\u2832\u2811\u2817\u2817\u2815\u2817\u2836\u280b\u2824": 2711, "\u2811\u2817\u2817\u2815\u2817\u2812\u2800\u282f\u2811": 2712, "\u2811\u2817\u2817\u2815\u2817\u2812\u2800\u282f\u2811\u283f\u2824\u2836\u2800\u2800\u2800\u2800\u2800\u2800\u2800\u2800\u2800": 2713, "\u281e\u2817\u2801\u281d\u280e\u2809\u2817\u280a\u2803\u2811": 2714, "\u281e\u2811\u281b\u2817": 2715, "\u2838\u280d\u2815\u2819\u2801\u2807\u280a\u281e\u283d": 2716, "\u2813\u281e\u281e\u280f\u282d\u2832": 2717, "\u2836\u2800\u2800\u2800\u2800\u2800\u2800\u2800\u2800\u2800\u2800\u2800\u2800\u2800\u280a\u280b\u2800": 2718, "\u2809\u2815\u281d\u280e\u2809": 2719, "\u2809\u2815\u281d\u280e\u2809\u280a": 2720, "\u2809\u2815\u281d\u280e\u2809\u280a\u2815\u2825": 2721, "\u282f\u2804\u2802\u2800\u2804": 2722, "\u287d\u2815\u2825\u2800": 2723, "\u2824\u2802\u2800\u2800\u2800\u2800\u2800\u2800\u2800\u2800\u2800\u2824": 2724, "\u281b\u2817\u2801\u280d\u280d": 2725, "\u2832\u2800\u2800": 2726, "\u280b\u2817\u2815\u280d\u2800\u281e\u283d\u280f\u280a\u281d\u281b\u2800\u280a\u280d\u280f\u2815\u2817\u281e\u2800\u2859\u280a\u2809\u281e\u2802\u2800\u2847\u280a\u280e\u281e\u2802\u2800": 2727, "\u280b\u2817\u2815\u280d\u2800\u2811\u281d\u2825\u280d\u2800\u280a\u280d\u280f\u2815\u2817\u281e\u2800": 2728, "\u280e\u2824\u2824\u2824\u2800\u2800\u2800\u2800\u2800": 2729, "\u285b\u2855": 2730, "\u2804\u2802\u2800\u2800\u2800\u2800\u2800\u2804": 2731, "\u285d\u2825\u280d": 2732, "\u285d\u2825\u280d\u2803\u2811\u2817": 2733, "\u280a\u281e\u280e\u2800": 2734, "\u2803\u2817\u2801\u280a\u2807\u2807\u2811\u2800\u2817\u2811\u280f\u2817\u2811\u280e\u2811\u281d\u281e\u2801\u281e\u280a\u2815\u281d": 2735, "\u2803\u2825\u280a\u2807\u2819\u2838": 2736, "\u2807\u2801\u280d": 2737, "\u280e\u280f\u2811\u2809\u280a\u2801\u2807": 2738, "\u2836\u280e\u2811\u2807\u280b\u2832\u2811\u281d\u2809\u2815\u2819\u2811": 2739, "\u2802\u2800\u2807\u2801\u281d\u281b\u2825\u2801\u281b\u2811\u2836": 2740, "\u2843\u2815": 2741, "\u2847\u2801\u281d\u281b\u2825\u2801\u281b\u2811\u2832\u2857\u2865\u284e\u285e": 2742, "\u2865\u284f": 2743, "\u2859\u2851\u284b": 2744, "\u285e\u2851\u286d\u285e": 2745, "\u284d\u2841": 2746, "\u2800\u282e\u2836\u2800\u2881": 2747, "\u280a\u2800\u282e\u2800\u2881": 2748, "\u2823\u2836\u2800": 2749, "\u2812\u2800\u280e\u281e\u2817\u2802\u2800\u2807\u2801\u281d\u281b\u2825\u2801\u281b\u2811\u2812\u2800\u2847\u2801\u281d\u281b\u2825\u2801\u281b\u2811": 2750, "\u2853\u2811\u2807": 2751, "\u2812\u2821\u281d": 2752, "\u2821\u281d\u283f\u2804\u2802\u2800\u285d\u2815\u281d\u2811\u2836\u2802\u2800\u2800\u2800\u2800\u2800\u2800\u2800\u2800\u2800\u2800\u2800\u2800\u2800\u2800\u2800\u2800\u2800\u2836\u2804": 2753, "\u2817\u2811\u280e\u2825\u2807\u281e\u2800": 2754, "\u281e\u283d\u280f\u2811\u2800": 2755, "\u2849\u2857\u2851\u2841\u285e\u2851\u2800": 2756, "\u281d\u2801\u280d\u2811\u2800": 2757, "\u2824\u2812\u2800\u280b\u2824": 2758, "\u2800\u280a\u281d\u2800\u2893\u2824\u2819\u2815\u281e\u2800\u2803\u2817\u2801\u280a\u2807\u2807\u2811": 2759, "\u2832\u280e\u280f\u2807\u280a\u281e\u2836\u2804\u2821\u281d\u2804\u2836": 2760, "\u2800\u280b\u2825\u281d\u2809\u281e\u280a\u2815\u281d": 2761, "\u2803\u2817\u2801\u2809\u2805\u2811\u281e\u280e": 2762, "\u2811\u281d\u2809\u2815\u2819\u2811\u2817\u2832\u2819\u2811\u2809\u2815\u2819\u2811": 2763, "\u2812\u2800\u280a\u281d\u281e\u2800\u2836\u2800": 2764, "\u287a\u2813\u280a\u280e\u280f\u2811\u2817": 2765, "\u2825\u2817\u2801\u2807": 2766, "\u284e\u2841\u2847\u2804\u280e\u2800": 2767, "\u2841\u2807\u2807\u2800": 2768, "\u283e\u2800\u2800\u2800\u2800\u2800\u2800\u2800\u2800\u2800\u2800\u2800\u2800\u2800\u2800\u2800\u2800\u2800\u2800": 2769, "\u2849\u2811\u2807\u2807": 2770, "\u2800\u2800\u2800\u2800\u2800\u2800\u2800\u2800\u2800\u2800\u2808\u280f\u2817\u2815\u280f\u2811\u2817\u281e\u283d\u2800\u2800\u2800\u2800\u2800\u2819\u2811\u280b\u2800": 2771, "\u2811\u280d\u280f\u281e": 2772, "\u2801\u281d\u283d\u2800": 2773, "\u280d\u280a\u280e\u280e\u280a\u281d\u281b\u2800": 2774, "\u2832\u281b\u2811\u281e\u2836": 2775, "\u2804\u281e\u2800": 2776, "\u2800\u2800\u2800\u2800\u2800\u2800\u2800\u2800\u2800\u2800\u2800\u2800\u2800\u2800\u2808\u280f\u2817\u2815\u280f\u2811\u2817\u281e\u283d\u2800\u2800\u2800\u2800\u2800\u2819\u2811\u280b\u2800": 2777, "\u2815\u281d\u2800": 2778, "\u2803\u283d\u281e\u2811\u280e": 2779, "\u2801\u283a\u2801\u280a\u281e\u2800\u280e\u2811\u2807\u280b\u2832": 2780, "\u2847\u2815": 2781, "\u2824\u2812\u2800\u2800\u2800\u2800\u2800\u2800\u2800\u2800\u2800\u2800\u2800\u2800\u2800": 2782, "\u285e\u2817\u2801\u281d\u280e\u2807": 2783, "\u2811\u282d\u281e\u2817\u2801\u2809\u281e": 2784, "\u281e\u2817\u283d\u2812\u2800\u2800\u2800\u2800\u2800\u2800\u2800\u2800\u2800\u2800\u2800\u2800\u2800": 2785, "\u2801\u281d\u2801\u2807\u283d\u280e\u280a": 2786, "\u280e\u2809\u2807\u2838\u280f\u2801\u2817": 2787, "\u284d\u2855": 2788, "\u281b\u281b\u2811\u2817": 2789, "\u2883\u2832\u2800": 2790, "\u2889\u2832\u2800": 2791, "\u284e\u280a": 2792, "\u2813\u2801\u280f\u281e\u280a\u2809\u2838\u280e\u280a\u281b\u281d\u2801\u281e\u2825\u2817\u2811": 2793, "\u2801\u281e\u2825\u2817\u2811\u280e": 2794, "\u2881\u289a\u289a\u2802\u2800\u2824\u280a\u281d\u281e\u2811\u281d\u280e\u280a\u281e\u283d\u2824\u2812\u2800\u289a\u2832": 2795, "\u2825\u281d\u2809\u2807\u2815\u280e\u2811": 2796, "\u2804\u2836\u2836": 2797, "\u2812\u2800\u2800\u2800\u2800\u2800\u2800\u2800\u2800\u2800\u2800\u2800\u2800\u2800\u2800\u2800\u2800\u2800\u2800\u2800\u2800\u2800\u2800\u2800\u2800\u2800": 2798, "\u2811\u2817\u2817\u2815\u2817\u2832": 2799, "\u280b\u2817\u2815\u280d\u2800\u2819\u2801\u281e\u2801\u2809\u2807\u2801\u280e\u280e\u2811\u280e\u2800\u280a\u280d\u280f\u2815\u2817\u281e\u2800\u2819\u2801\u281e\u2801\u2809\u2807\u2801\u280e\u280e": 2800, "\u280b\u2817\u2815\u280d\u2800\u2819\u2801\u281e\u2801\u2809\u2807\u2801\u280e\u280e\u2811\u280e\u2800\u280a\u280d\u280f\u2815\u2817\u281e\u2800\u2819\u2801\u281e\u2801\u2809\u2807\u2801\u280e\u280e\u2802\u2800": 2801, "\u280b\u2817\u2815\u280d\u2800\u2819\u2801\u281e\u2801\u2809\u2807\u2801\u280e\u280e\u2811\u280e\u2800\u280a\u280d\u280f\u2815\u2817\u281e\u2800\u2819\u2801\u281e\u2801\u2809\u2807\u2801\u280e\u280e\u2802\u2800\u280b\u280a\u2811\u2807": 2802, "\u2817\u2811\u280e\u2825\u2807\u281e\u2832\u281b\u2811\u281e\u2836\u2824": 2803, "\u280b\u2825\u2807\u2807": 2804, "\u280b\u2825\u2807\u2807\u2838": 2805, "\u281e\u280a\u280d\u2811\u280e\u281e\u2801\u280d\u280f\u2824\u2812\u2800": 2806, "\u2809\u2811\u280e\u280e\u280a\u2803\u280a\u2807\u280a\u281e\u283d\u2800": 2807, "\u2803\u2801\u2817": 2808, "\u280a\u281b\u2813\u281e\u2800": 2809, "\u280a\u2819\u2802\u2800": 2810, "\u280b\u280a\u2807\u2811\u281d": 2811, "\u280b\u280a\u2807\u2811\u281d\u2801\u280d\u2811": 2812, "\u281d\u2801\u280d\u2811\u2800\u2836\u2800": 2813, "\u280b\u2801\u280e\u281e\u2811\u2817": 2814, "\u2836\u284b\u2801\u2807\u280e\u2811": 2815, "\u280b\u280a\u2807\u281e\u2811\u2817": 2816, "\u2843\u2817\u2801\u280a\u2807\u2807\u2811\u2800\u284a\u2859\u2851\u2800": 2817, "\u280e\u283d\u280e\u2832\u280f\u2801\u281e\u2813\u2832\u280a\u281d\u280e\u2811\u2817\u281e\u2836\u289a\u2802\u2800\u280e\u281e\u2817\u2836\u284f\u2801\u281e\u2813\u2836\u2838\u2838\u280b\u280a\u2807\u2811\u2838\u2838\u2836\u2832\u280f\u2801\u2817\u2811\u281d\u281e\u2832\u280f\u2801\u2817\u2811\u281d\u281e": 2818, "\u280e\u283d\u280e\u2832\u280f\u2801\u281e\u2813\u2832\u280a\u281d\u280e\u2811\u2817\u281e\u2836\u289a\u2802\u2800\u280e\u281e\u2817\u2836\u284f\u2801\u281e\u2813\u2836\u2838\u2838\u280b\u280a\u2807\u2811\u2838\u2838\u2836\u2832\u280f\u2801\u2817\u2811\u281d\u281e\u2832\u280f\u2801\u2817\u2811\u281d\u281e\u2836\u2836\u2800": 2819, "\u2809\u2815\u280d\u280f\u2807\u2811\u281e\u280a\u2815\u281d\u2800": 2820, "\u2859\u2800\u2836\u2800\u2824": 2821, "\u282b\u282f\u289a\u2812\u280f\u2801\u280e\u280e": 2822, "\u280e\u281e\u2801\u281e\u2811\u280d\u2811\u281d\u281e": 2823, "\u281e\u2801\u2803\u2807\u2811": 2824, "\u2802\u2800\u280f\u2817\u2811\u280b\u280a\u282d": 2825, "\u280b\u2817\u2815\u280d\u2838": 2826, "\u2838\u280d\u2801\u281e\u2809\u2813": 2827, "\u283f\u282f": 2828, "\u2849\u2801\u280e\u2809\u2801\u2819\u2811": 2829, "\u2809\u2815\u2819\u2811\u2838\u2801\u281d\u2801\u2807\u283d\u2835\u2811\u2817": 2830, "\u285d\u2859\u284a\u285d\u285b": 2831, "\u284d\u2851\u285d\u285e": 2832, "\u283e\u2800\u2836\u2800\u280b\u280a\u2811\u2807\u2819\u2836\u2819\u2811\u280b\u2801\u2825\u2807\u281e\u2838\u280b\u2801\u2809\u281e\u2815\u2817\u283d\u2836\u2807\u280a\u280e\u281e\u2836\u2800\u2800\u2800\u2800\u2800": 2833, "\u2849\u2815\u2819\u280a\u281d\u281b\u285e\u2801\u280e\u2805": 2834, "\u280a\u281d\u281e\u2811\u281d\u281e\u2800": 2835, "\u2819\u2801\u281e\u2811\u281e\u280a\u280d\u2811\u2832\u281d\u2815\u283a\u2836\u2836\u2832\u280a\u280e\u2815\u280b\u2815\u2817\u280d\u2801\u281e": 2836, "\u2824\u2812\u2800\u280e\u2832": 2837, "\u2802\u2800\u2800\u2800\u2800\u2800\u2800\u2800\u283c\u2800": 2838, "\u2838\u280e\u2801\u2807": 2839, "\u284b\u284a\u2847\u2851": 2840, "\u2836\u2817\u2811\u2807": 2841, "\u2821\u281d\u2804": 2842, "\u284e\u2851\u284f": 2843, "\u284e\u2851\u284f\u2841\u2857": 2844, "\u284e\u2851\u284f\u2841\u2857\u2841\u285e\u2855\u2857": 2845, "\u285e\u2855\u285b\u285b": 2846, "\u285e\u2855\u285b\u285b\u2847\u2851": 2847, "\u2824\u2802\u2800\u2800\u2800\u2800\u2800\u2800\u2800\u2800\u2800\u2800\u2800\u2800\u2800\u2800\u2800\u2800\u2800\u280e\u2813\u2815\u2817\u281e\u2809\u2825\u281e": 2848, "\u2824\u2802\u2800\u2800\u2800\u2800\u2800\u2800\u2800\u2800\u2800\u2800\u2800\u2800\u2800\u2800\u2800\u2800\u2800\u280e\u2813\u2815\u2817\u281e\u2809\u2825\u281e\u2836\u2824": 2849, "\u2836\u2824\u2824\u2802\u2800\u2800\u2800\u2800\u2800\u2800\u2800\u2800\u2800\u2800\u2800\u2800\u2800\u2800\u2800\u2800\u2800": 2850, "\u280a\u281e\u2811\u280d\u2838\u281e\u283d\u280f\u2811\u2836": 2851, "\u280a\u281e\u2811\u280d\u2838\u281e\u283d\u280f\u2811\u2836\u284d\u2811\u281d\u2825\u284a\u281e\u2811\u280d\u285e\u283d\u280f\u2811\u2832": 2852, "\u2838\u280a\u2819\u282d": 2853, "\u2832\u280f\u2815\u280f": 2854, "\u2843\u2817\u2801\u280a\u2807\u2807\u2811\u284f\u2817\u2815\u281a\u2811\u2809\u281e": 2855, "\u2819\u280a\u280b\u280a": 2856, "\u2807\u280a\u281d\u2811\u282e\u2812\u280e\u2811\u2807\u280b\u2832\u2809\u2825\u2817\u280e\u2815\u2817\u2838\u2809\u2815\u2807": 2857, "\u2807\u280a\u281d\u2811\u282e\u280e\u2811\u2807\u280b\u2832\u2809\u2825\u2817\u280e\u2815\u2817\u2838\u2809\u2815\u2807": 2858, "\u2807\u280a\u281d\u2811\u280e\u282e\u280e\u2811\u2807\u280b\u2832\u2809\u2825\u2817\u280e\u2815\u2817\u2838\u2807\u280a\u281d\u2811\u283e\u2800\u2836\u2800": 2859, "\u282e\u2836\u2800\u2881": 2860, "\u2859\u2811\u2807\u2811\u281e\u2811\u2800": 2861, "\u280f\u2817\u2811\u2827\u2838": 2862, "\u282f\u283f\u2836": 2863, "\u280e\u2812\u2800\u2800\u2800\u2800\u2800\u2800\u2800\u2800\u2800\u2800\u2800\u2800\u2800\u2800\u2800\u2800\u2800": 2864, "\u280e\u2824\u283e": 2865, "\u2802\u2800\u280a\u281d\u2809\u2807\u2825\u2819\u2811\u2838\u280b\u280a\u2807\u2811": 2866, "\u2849\u2865\u2857": 2867, "\u284a\u284d\u284f": 2868, "\u2867\u280a\u280e\u280a\u281e\u2800": 2869, "\u2807\u280a\u281d\u2811\u281d\u2815": 2870, "\u2821\u2804": 2871, "\u2821\u2804\u2824\u283e": 2872, "\u2802\u2800\u2800\u2800\u2800\u2800\u2800\u2800\u2800\u2800\u2800\u2800\u2800\u2800\u2800\u2800\u2800\u2800\u2800\u2800\u2800\u2800\u2800\u2800\u2800": 2873, "\u280e\u283d\u280d\u2803\u2815\u2807\u2832": 2874, "\u2824\u2812\u2800\u285e\u2815\u2805\u2811\u281d\u285e\u283d\u280f\u2811\u2832\u284e\u284f\u2851\u2849\u284a\u2841\u2847": 2875, "\u280e\u2800\u2800\u2800\u2800\u2800\u2800\u2800\u2800\u2800\u2800\u2800\u2800\u2800\u2836\u2817\u2804": 2876, "\u2865\u281d\u2819\u2815": 2877, "\u2803\u2815\u2815\u2805\u280d\u2801\u2817\u2805": 2878, "\u2801\u2800\u281d\u2815\u2819\u2811": 2879, "\u2803\u2817\u2801\u280a\u2807\u2807\u2811\u2838\u280a\u2819\u2836": 2880, "\u2801\u2803\u280e\u281e\u2817\u2801\u2809\u281e\u280d\u2811\u281e\u2813\u2815\u2819\u2800\u2800\u2800\u2800\u2800\u2819\u2811\u280b\u2800": 2881, "\u2824\u2824\u2824\u2800\u2800\u2800\u2800\u2800\u2800\u2800\u2800\u2800\u280f\u2801\u280e\u280e": 2882, "\u2819\u2811\u280f\u281e\u2813": 2883, "\u281d\u281e": 2884, "\u280a\u2819\u2812\u2800\u282b\u280a\u2819": 2885, "\u284d\u2841\u285e\u2849\u2853\u2800\u2836\u281d": 2886, "\u2817\u2811\u2809\u2815\u2817\u2819\u282e\u2824": 2887, "\u2824\u2824\u2824\u2800\u280e\u2801\u2807\u2824\u2827\u2815\u280a\u2809\u2811\u2800": 2888, "\u2827\u2811\u2800": 2889, "\u2832\u2800\u2824\u2824\u2824\u2800\u2800": 2890, "\u280a\u2815\u2800\u280a\u280d\u280f\u2815\u2817\u281e\u2800": 2891, "\u2800\u2800\u280b\u2817\u2815\u280d\u2800": 2892, "\u284d\u2847": 2893, "\u280a\u2819\u2819\u2807\u2811": 2894, "\u280a\u2819\u2819\u2807\u2811\u283a\u2801": 2895, "\u280e\u2811\u280e\u280e\u280a\u2815\u281d\u2838": 2896, "\u280f\u2801\u281d": 2897, "\u2819\u2811\u280e\u2809\u2817\u280a\u280f\u281e\u280a\u2815\u281d\u2836\u2824": 2898, "\u2827\u2811\u2817\u280e\u280a\u2815\u281d": 2899, "\u2802\u2800\u2800\u2800\u2800\u2800\u2801\u2807\u2807\u2815\u283a": 2900, "\u2802\u2800\u2800\u2800\u2800\u2800\u2801\u2807\u2807\u2815\u283a\u2838": 2901, "\u2827\u2815\u280a\u2809\u2811\u2838\u2811\u281d\u2801\u2803\u2807\u2811\u2819": 2902, "\u2813\u281e\u280d\u2807": 2903, "\u2800\u2800\u2800\u2800\u2800\u2823": 2904, "\u281d\u2801\u280d\u2811\u2836\u2824": 2905, "\u2814\u280c": 2906, "\u280f\u282d\u2806\u2800\u2800\u2800\u2800\u2800\u2800\u2800\u2800\u2800\u283f\u2800\u2800\u2800\u2800\u2800\u2800\u2800\u2800\u2800\u2832": 2907, "\u2801\u2807\u280a\u281b\u281d\u2824": 2908, "\u2801\u2807\u280a\u281b\u281d\u2824\u280a\u281e\u2811\u280d": 2909, "\u2801\u2807\u280a\u281b\u281d\u2824\u280a\u281e\u2811\u280d\u280e\u2812\u2800": 2910, "\u2801\u2807\u280a\u281b\u281d\u2824\u280a\u281e\u2811\u280d\u280e\u2812\u2800\u2809\u2811\u281d\u281e\u2811\u2817\u2806\u2800\u2800\u2800\u2800\u2800\u2800\u2800\u2800\u2800\u2800\u2800\u2800\u2800": 2911, "\u2803\u2815\u2817\u2819\u2811\u2817\u2812\u2800\u2881\u280f\u282d\u2800\u280e\u2815\u2807\u280a\u2819\u2800": 2912, "\u2817\u281b\u2803\u2801\u2836\u2883\u2891\u2891\u2802\u2883\u2891\u2891\u2802\u2883\u2891\u2891\u2802": 2913, "\u2803\u2811\u281e\u283a\u2811": 2914, "\u2815\u281d\u2815": 2915, "\u2806\u2800\u2800\u2800\u2800\u2800\u2800\u2800\u2800\u2800\u283f\u2800\u2800\u2800\u2800\u2800\u2800\u2800\u2800\u2800\u2800\u2800\u2800\u2800\u2800\u2800\u2800\u2800\u2800": 2916, "\u2803\u2815\u2817\u2819\u2811\u2817\u2824\u2817\u2801\u2819\u280a\u2825\u280e\u2812\u2800\u2893\u280f\u282d\u2806\u2800\u2800\u2800\u2800\u2800\u2800\u2800\u2800\u2800\u2800\u2800\u2800\u2800": 2917, "\u281e\u2811\u282d\u281e\u284a\u281d\u280f\u2825\u281e": 2918, "\u2801\u280d": 2919, "\u281b\u2811\u2800": 2920, "\u2801\u281d\u283d": 2921, "\u2803\u2825\u281e\u281e\u2815\u281d\u2800\u2809\u2807\u2801\u280e\u280e\u2836\u2824": 2922, "\u2817\u2811\u2809\u2815\u2817\u2819\u280a\u281d\u281b": 2923, "\u2809\u2813\u2801\u281d\u281b\u2811": 2924, "\u280a\u2800": 2925, "\u2800\u280a\u2819\u2836\u2824": 2926, "\u280a\u281d\u280a\u281e\u280a\u2801\u2807\u280a\u2835": 2927, "\u280e\u2809\u2817\u280a\u280f\u281e": 2928, "\u281d\u2825\u2807\u2807": 2929, "\u2801\u2825\u2819\u280a\u2815\u2849\u2813": 2930, "\u2801\u2825\u2819\u280a\u2815\u2849\u2813\u2825\u281d\u2805": 2931, "\u280c\u280c\u2800": 2932, "\u280a\u2801\u2807\u280a\u2835\u2811\u2800": 2933, "\u280d\u2811\u281e\u2813\u2815\u2819\u2812\u2800\u2804": 2934, "\u280d\u2811\u281e\u2813\u2815\u2819\u2812\u2800\u2804\u284f\u2855\u284e\u285e": 2935, "\u2819\u2801\u281e\u2801\u2800\u2836\u2800\u2801\u283a\u2801\u280a\u281e\u2800": 2936, "\u2804\u2836\u2832\u2809\u2807\u2801\u280e\u280e\u2847\u280a\u280e\u281e": 2937, "\u2832\u2801\u2819\u2819": 2938, "\u2836\u2800\u2815\u2817\u2800": 2939, "\u283f\u2800\u2800\u2800\u2800\u2800\u2800\u2800\u2800\u2800\u283f\u2800\u2800\u2800\u2800\u2800\u2800\u2800\u2800\u2800\u2800\u2800\u2800\u2800\u2800\u2800\u2800\u2800\u2800\u2801\u280e\u283d\u281d\u2809\u2800\u280b\u2825\u281d\u2809\u281e\u280a\u2815\u281d\u2800": 2940, "\u2825\u281d\u280a\u280b\u280a\u2811\u2819\u280c": 2941, "\u2836\u282f": 2942, "\u2836\u2819\u2801\u281e\u2801\u2832": 2943, "\u280d\u2811\u2819\u280a\u2801\u2857\u2811\u2809\u2815\u2817\u2819\u2811\u2817\u2832": 2944, "\u2843\u2807\u2815\u2803": 2945, "\u2819\u2815\u2809\u2825\u280d\u2811\u281d\u281e\u2832\u281b\u2811\u281e\u2851\u2807\u2811\u280d\u2811\u281d\u281e\u2843\u283d\u284a\u2819\u2836\u2804\u2817\u2811\u2809\u2815\u2817\u2819": 2946, "\u2804\u2836\u2832\u281e\u2811\u282d\u281e\u2849\u2815\u281d\u281e\u2811\u281d\u281e\u2800\u2836\u2800\u2804": 2947, "\u2811\u281d\u280a": 2948, "\u2827\u2801\u2807\u2825\u2811\u2800": 2949, "\u2801\u2817\u2819\u2800": 2950, "\u2899\u289a": 2951, "\u280b\u2815\u2825\u281d\u2819": 2952, "\u2836\u2803\u2817\u2801\u280a\u2807\u2807\u2811": 2953, "\u280a\u281d\u280f\u2825\u281e\u2824\u2812\u2800": 2954, "\u2811\u2817\u2817\u2815\u2817\u2812\u2800\u282f\u2811\u283f\u2824\u2836\u2800\u2800\u2800\u2800\u2800\u2800\u2800\u2800\u2800\u2817\u2801\u280a\u280e\u2811\u2800\u2853\u285e\u285e\u284f\u2851\u282d\u2809\u2811\u280f\u281e\u280a\u2815\u281d\u2836": 2955, "\u2891\u289a\u289a\u2802\u2800": 2956, "\u280e\u281e\u2817\u2836\u2811\u2836\u2836": 2957, "\u280a\u281d\u280f\u2825\u281e\u2838\u2807\u2801\u281d\u281b\u2825\u2801\u281b\u2811": 2958, "\u280a\u281d\u280f\u2825\u281e\u2838\u2809\u2815\u281d\u280b\u280a\u2819\u2811\u281d\u2809\u2811": 2959, "\u285e\u2817": 2960, "\u2813\u281e\u281e\u280f\u282d\u2832\u2841\u280e\u283d\u281d\u2809": 2961, "\u2813\u281e\u281e\u280f\u282d\u2832\u2841\u280e\u283d\u281d\u2809\u2849\u2807\u280a": 2962, "\u2809\u2815\u281d\u280e\u2809\u280a\u2815\u2825\u280e\u281d": 2963, "\u280e\u2809\u2807\u2836": 2964, "\u2824\u2802\u2800\u282e\u283e": 2965, "\u281f\u2825\u280a": 2966, "\u2836\u283f": 2967, "\u2817\u2815\u2825": 2968, "\u2817\u2815\u2825\u281b\u2813": 2969, "\u281b\u2817\u2801\u280d\u280d\u280a\u281d\u281b\u2800": 2970, "\u285e\u2825\u280f\u2807\u2811\u2802\u2800": 2971, "\u280b\u2817\u2815\u280d\u2800\u2811\u281d\u2825\u280d\u2800\u280a\u280d\u280f\u2815\u2817\u281e\u2800\u2851\u281d\u2825\u280d": 2972, "\u2849\u2815\u280d\u280f\u2807\u2811\u281e\u2811\u2800": 2973, "\u2804\u2812\u2800\u2804\u2809": 2974, "\u2819\u2804\u2802\u2800\u2804": 2975, "\u2804\u2812\u2800\u2804\u281a": 2976, "\u2855\u280f\u2811\u281d\u2800": 2977, "\u2893\u2838\u285e\u2855\u2838": 2978, "\u2893\u2838\u285e\u2855\u2838\u2841\u284e\u2849\u284a\u284a": 2979, "\u2802\u2800\u2827": 2980, "\u2815\u280f\u2811\u2817\u2801\u281e\u2815\u2817": 2981, "\u2843\u2825\u280a\u2807\u2819\u2800": 2982, "\u2803\u2817\u2801\u280a\u2807\u2807\u2811\u2824\u2824\u2824\u2800\u2800\u2800\u2800\u2800\u2800\u2800\u2800\u2800": 2983, "\u2819\u2801": 2984, "\u2805\u2811\u283d\u283a\u2815\u2817\u2819\u280e\u282e": 2985, "\u283e\u2832\u2801\u280f\u280f\u2811\u281d\u2819\u2836": 2986, "\u283e\u2832\u2801\u280f\u280f\u2811\u281d\u2819\u2836\u2843\u2817\u2801\u280a\u2807\u2807\u2811\u2845\u2811\u283d\u283a\u2815\u2817\u2819": 2987, "\u283e\u2832\u2801\u280f\u280f\u2811\u281d\u2819\u2836\u2843\u2817\u2801\u280a\u2807\u2807\u2811\u2845\u2811\u283d\u283a\u2815\u2817\u2819\u2836\u2800\u2800\u2800\u2800\u2800\u2800\u2800\u2800\u2800\u2800\u2800\u2800\u2800\u2800\u2800\u2800\u2800": 2988, "\u283e\u2832\u2801\u280f\u280f\u2811\u281d\u2819\u2836\u2843\u2817\u2801\u280a\u2807\u2807\u2811\u2845\u2811\u283d\u283a\u2815\u2817\u2819\u2836\u2800\u2800\u2800\u2800\u2800\u2800\u2800\u2800\u2800\u2800\u2800\u2800\u2800\u2800\u2800\u2800\u2800\u281e\u2811\u282d\u281e\u2836": 2989, "\u283e\u2832\u2801\u280f\u280f\u2811\u281d\u2819\u2836\u2843\u2817\u2801\u280a\u2807\u2807\u2811\u2845\u2811\u283d\u283a\u2815\u2817\u2819\u2836\u2800\u2800\u2800\u2800\u2800\u2800\u2800\u2800\u2800\u2800\u2800\u2800\u2800\u2800\u2800\u2800\u2800\u281e\u2811\u282d\u281e\u2836\u2805\u283a": 2990, "\u283e\u2832\u2801\u280f\u280f\u2811\u281d\u2819\u2836\u2843\u2817\u2801\u280a\u2807\u2807\u2811\u2845\u2811\u283d\u283a\u2815\u2817\u2819\u2836\u2800\u2800\u2800\u2800\u2800\u2800\u2800\u2800\u2800\u2800\u2800\u2800\u2800\u2800\u2800\u2800\u2800\u281e\u2811\u282d\u281e\u2836\u2805\u283a\u2802\u2800\u2803\u2817\u2801\u280a\u2807\u2807\u2811": 2991, "\u283e\u2832\u2801\u280f\u280f\u2811\u281d\u2819\u2836\u2843\u2817\u2801\u280a\u2807\u2807\u2811\u2845\u2811\u283d\u283a\u2815\u2817\u2819\u2836\u2800\u2800\u2800\u2800\u2800\u2800\u2800\u2800\u2800\u2800\u2800\u2800\u2800\u2800\u2800\u2800\u2800\u281e\u2811\u282d\u281e\u2836\u2805\u283a\u2802\u2800\u2803\u2817\u2801\u280a\u2807\u2807\u2811\u2836\u280e\u2811\u2807\u280b\u2832\u2811\u281d\u2809\u2815\u2819\u2811": 2992, "\u283e\u2832\u2801\u280f\u280f\u2811\u281d\u2819\u2836\u2843\u2817\u2801\u280a\u2807\u2807\u2811\u2845\u2811\u283d\u283a\u2815\u2817\u2819\u2836\u2800\u2800\u2800\u2800\u2800\u2800\u2800\u2800\u2800\u2800\u2800\u2800\u2800\u2800\u2800\u2800\u2800\u281e\u2811\u282d\u281e\u2836\u2805\u283a\u2802\u2800\u2803\u2817\u2801\u280a\u2807\u2807\u2811\u2836\u280e\u2811\u2807\u280b\u2832\u2811\u281d\u2809\u2815\u2819\u2811\u2836\u2805\u283a": 2993, "\u283e\u2832\u2801\u280f\u280f\u2811\u281d\u2819\u2836\u2843\u2817\u2801\u280a\u2807\u2807\u2811\u2845\u2811\u283d\u283a\u2815\u2817\u2819\u2836\u2800\u2800\u2800\u2800\u2800\u2800\u2800\u2800\u2800\u2800\u2800\u2800\u2800\u2800\u2800\u2800\u2800\u281e\u2811\u282d\u281e\u2836\u2805\u283a\u2802\u2800\u2803\u2817\u2801\u280a\u2807\u2807\u2811\u2836\u280e\u2811\u2807\u280b\u2832\u2811\u281d\u2809\u2815\u2819\u2811\u2836\u2805\u283a\u2836": 2994, "\u283e\u2832\u2801\u280f\u280f\u2811\u281d\u2819\u2836\u2843\u2817\u2801\u280a\u2807\u2807\u2811\u2845\u2811\u283d\u283a\u2815\u2817\u2819\u2836\u2800\u2800\u2800\u2800\u2800\u2800\u2800\u2800\u2800\u2800\u2800\u2800\u2800\u2800\u2800\u2800\u2800\u281e\u2811\u282d\u281e\u2836\u2805\u283a\u2802\u2800\u2803\u2817\u2801\u280a\u2807\u2807\u2811\u2836\u280e\u2811\u2807\u280b\u2832\u2811\u281d\u2809\u2815\u2819\u2811\u2836\u2805\u283a\u2836\u2802\u2800\u2807\u2801\u281d\u281b\u2825\u2801\u281b\u2811\u2836": 2995, "\u2802\u2800\u2809\u2801\u281e\u2811\u281b": 2996, "\u2802\u2800\u2809\u2801\u281e\u2811\u281b\u2815\u2817\u283d\u2836": 2997, "\u2802\u2800\u2809\u2801\u281e\u2811\u281b\u2815\u2817\u283d\u2836\u2809\u2801\u281e": 2998, "\u2802\u2800\u2809\u2801\u281e\u2811\u281b\u2815\u2817\u283d\u2836\u2809\u2801\u281e\u2800\u2800\u2800\u2800\u2800\u2800\u2800\u2800\u2800\u2800\u2800\u2800\u2800": 2999, "\u280f\u2825\u2803": 3000, "\u283a\u2813\u2811\u2817\u2811": 3001, "\u284e\u281e\u2817\u280a\u281d\u281b": 3002, "\u2847\u2801\u281d\u281b\u2825\u2801\u281b\u2811\u2832\u285b\u2855": 3003, "\u2815\u280b": 3004, "\u280a\u281d\u280e\u281e\u2801\u281d\u2809\u2811": 3005, "\u2859\u2841\u285e\u2851": 3006, "\u2859\u2851\u2847\u2851\u285e\u2851": 3007, "\u2836\u2809\u2813\u2801\u2817": 3008, "\u2836\u2800\u2800\u2800\u2800\u2800\u2800\u2800\u2800\u2800\u280a\u280b\u2800": 3009, "\u2817\u2811\u280e\u2825\u2807\u281e\u2832\u2801\u280f\u280f\u2811\u281d\u2819\u2836": 3010, "\u2836\u2800\u2824\u281c\u2800\u280e\u281e\u2817\u2812\u2800\u2800\u2800\u2800\u2800\u2800\u2800\u2800\u2800\u2824\u2824\u2824": 3011, "\u2807\u2801\u281d\u281b\u2825\u2801\u281b\u2811\u2800": 3012, "\u280f\u2817\u280a\u281d\u281e\u2836\u2824": 3013, "\u284e\u2851\u2847\u2851\u2849": 3014, "\u284e\u2851\u2847\u2851\u2849\u285e\u2800": 3015, "\u287a\u2853\u2851\u2857\u2851\u2800": 3016, "\u2817\u2825\u281d": 3017, "\u281e\u2817\u2801\u280a\u281d\u280a\u281d\u281b\u2838\u2819\u2801\u281e\u2801": 3018, "\u282e\u289a\u283e": 3019, "\u2817\u280e\u281e": 3020, "\u280a\u2819\u2811": 3021, "\u2832\u2801\u280f\u280f\u2811\u281d\u2819\u2836\u282f\u2800\u2800\u2800\u2800\u2800\u2800\u2800\u2800\u2800\u2800\u2800\u2800\u2800\u2824": 3022, "\u2855\u280f\u2811\u281d": 3023, "\u2809\u2815\u2819\u2811\u2838\u2811\u281d\u2809\u2815\u2819\u2811\u2817\u2832\u2811\u281d\u2809\u2815\u2819\u2811\u2836": 3024, "\u2800\u2800\u2819\u2811\u280b\u2800": 3025, "\u280e\u2800\u280b\u2817\u2815\u280d\u2800\u280f\u2801\u281e\u2813\u2807\u280a\u2803\u2800\u280a\u280d\u280f\u2815\u2817\u281e\u2800\u284f\u2801\u281e\u2813": 3026, "\u284f\u2817\u2815\u2827\u280a": 3027, "\u285d\u2811\u2825\u2817\u2801\u2807": 3028, "\u280a\u281d\u281e\u2811\u2817\u281d\u2801\u2807\u2800": 3029, "\u2819\u2811\u2819\u2800": 3030, "\u2892\u2800": 3031, "\u2800\u2800\u2800\u2800\u2800\u2859\u2855\u285e": 3032, "\u2843\u2817\u2801\u280a\u2807\u2807\u2811\u2893\u2849\u2811\u2807\u2807": 3033, "\u2824\u2824\u2824\u2800\u2800\u2800\u2800\u2800\u2800\u2800\u2800\u2800\u2817\u2811\u281e\u2825\u2817\u281d\u2800\u282e": 3034, "\u2819\u2815\u281e\u280e\u2800": 3035, "\u2819\u280a\u2817\u2811\u2809\u281e": 3036, "\u2804\u2836\u2812\u2800\u289a\u282d\u2889": 3037, "\u2809\u2815\u2819\u280a\u281d\u281b": 3038, "\u2809\u2815\u280d\u280f\u2807\u2811\u281e\u2811": 3039, "\u2800\u280a\u280e\u2800": 3040, "\u280e\u2811\u2807\u280b\u2832\u2838\u2803\u2817\u2801\u280a\u2807\u2807\u2811": 3041, "\u282f\u2824\u281e\u283d\u280f\u2811\u2824\u2812\u2800\u2824\u280f\u2801\u2825\u280e\u2811\u2824\u2802\u2800\u2824\u2819\u2825\u2817\u2801\u281e\u280a\u2815\u281d\u2824\u2812\u2800": 3042, "\u282f\u2800\u2800\u2800\u2800\u2800\u2800\u2800\u2800\u2800\u2800\u2800\u2800\u2800\u2800\u2800\u2800\u2800\u2800\u2800\u2800\u2800\u2824": 3043, "\u2809\u2815\u2825\u281d\u281e\u2800": 3044, "\u280e\u2825\u280d": 3045, "\u2800\u2836\u2800\u280e\u2811\u2807\u280b\u2832\u2838": 3046, "\u2803\u2811\u280b\u2815\u2817": 3047, "\u2803\u2811\u280b\u2815\u2817\u2811\u2800": 3048, "\u281e\u2813\u2815\u2825\u281b\u2813\u281e\u2832\u2803\u2817\u2801\u280a\u2807\u2807\u2811": 3049, "\u281e\u2813\u2815\u2825\u281b\u2813\u281e\u2832\u281e\u2811\u282d\u281e": 3050, "\u2815\u2817\u283d\u2800": 3051, "\u2800\u2836\u2800\u284e\u2841\u2847": 3052, "\u281e\u2811\u282d\u281e\u2838\u281e\u2815\u2838\u2803\u2817\u2801\u280a\u2807\u2807\u2811\u2893": 3053, "\u2811\u281d\u281b\u280a\u281d\u2811": 3054, "\u280a\u2835\u2811\u2800": 3055, "\u281d\u280a\u281d\u281b": 3056, "\u283d\u280a\u2811\u2807\u2819\u2800": 3057, "\u284e\u2811\u280d\u2801\u281d\u281e\u280a\u2809": 3058, "\u280a\u2809\u2838": 3059, "\u281e\u2811\u282d\u281e\u2824\u2812\u2800": 3060, "\u280e\u2809\u2807\u2838\u2817\u2811\u280e\u2825\u2807\u281e\u282e\u2824": 3061, "\u2800\u2800\u2800\u2800\u2800\u2800\u2800\u2800\u2800\u2800\u2800\u2800\u2800\u2800\u2800\u2800\u2800\u2800\u280b\u2815\u2817\u2800": 3062, "\u283a\u2815\u2817\u2819\u2800\u280a\u281d\u2800": 3063, "\u280e\u2832\u2801\u280f\u280f\u2811\u281d\u2819": 3064, "\u2800\u2836\u2800\u282f\u2800\u2800\u2800\u2800\u2800\u2800\u2800\u2800\u2800\u2800\u2800\u2800\u2800\u2824": 3065, "\u283f\u2800\u2800\u2800\u2800\u2800\u2800\u2800\u2800\u2800\u2817\u2811\u281e\u2825\u2817\u281d\u2800": 3066, "\u2800\u280a\u281d\u2800\u281e\u2813\u2811\u2800": 3067, "\u280b\u2817\u2815\u280d\u2800\u2803\u2817\u2801\u280a\u2807\u2807\u2811\u2893\u2838\u2809\u2815\u2817\u2811\u2800\u280a\u280d\u280f\u2815\u2817\u281e\u2800": 3068, "\u280b\u2817\u2815\u280d\u2800\u2803\u2817\u2801\u280a\u2807\u2807\u2811\u2893\u2838\u2809\u2815\u2817\u2811\u2800\u280a\u280d\u280f\u2815\u2817\u281e\u2800\u2843\u2817\u2801\u280a\u2807\u2807\u2811\u2893\u2851\u281d\u2809\u2815\u2819\u2811\u2817": 3069, "\u280e\u281e\u2817\u2825\u2809\u281e\u2825\u2817\u2811": 3070, "\u282f\u2824\u281e\u283d\u280f\u2811\u2824\u2812\u2800\u2824\u2827\u280a\u2803\u2817\u2801\u281e\u2811\u2824\u2802\u2800\u2824\u2819\u2825\u2817\u2801\u281e\u280a\u2815\u281d\u2824\u2812\u2800": 3071, "\u2815\u2825\u2807": 3072, "\u2815\u2825\u2807\u2819\u2800": 3073, "\u2836\u2802\u2800\u2800\u2800\u2800\u2800\u2800\u2800\u2800\u2800\u2800\u2800\u2800\u2800\u2824": 3074, "\u2827\u2801\u2817\u280a\u2801\u2803\u2807\u2811": 3075, "\u280e\u283d\u281d\u281e\u2801": 3076, "\u284e\u283d\u281d\u281e\u2801\u282d\u2800": 3077, "\u2807\u280a\u281d\u2811\u280e\u2836\u2812\u2800\u2800\u2800\u2800\u2800\u2800\u2800\u2800\u2800\u2800\u2800\u2800\u2800": 3078, "\u281c\u2800\u289a\u2812\u2800\u2800\u2800\u2800\u2800\u2800\u2800\u2800\u2800\u2800\u2800\u2800\u2800\u2800\u2800\u2800\u2800": 3079, "\u2804\u283e": 3080, "\u2807\u2811\u2827": 3081, "\u2847\u280a\u281d\u2811\u2800": 3082, "\u280b\u2817\u2815\u280d\u2800\u2819\u2801\u281e\u2801\u2809\u2807\u2801\u280e\u280e\u2811\u280e\u2800\u280a\u280d\u280f\u2815\u2817\u281e\u2800\u2819\u2801\u281e\u2801\u2809\u2807\u2801\u280e\u280e\u2802\u2800\u280b\u280a\u2811\u2807\u2819\u2800": 3083, "\u2812\u2800\u2819\u2801\u281e\u2811\u281e\u280a\u280d\u2811": 3084, "\u280a\u2819\u2802\u2800\u2800\u2800\u2800\u2800\u2800\u2800\u2800\u2800\u2800\u2800\u2800\u2800\u2824": 3085, "\u2801\u2817\u283d": 3086, "\u280e\u281e\u2801\u281e\u2825\u280e\u2832": 3087, "\u2824\u2800\u2809\u2807\u2801\u280e\u280e\u2836\u2824": 3088, "\u2800\u2800\u2800\u2800\u2800\u2800\u2800\u2800\u2800\u2800\u2800\u2800\u2800\u2800\u2800\u2800\u2800\u2800\u2800\u2800\u2800\u2823\u2819\u280a\u2827\u2800\u2809\u2807\u2801\u280e\u280e\u2836\u2824": 3089, "\u2806\u2800\u2800\u2800\u2800\u2800\u2800\u2800\u2800\u2800\u2800\u2800\u2800\u2800\u2800\u2800\u2800\u2800\u2800\u2800\u2800\u2800\u2819\u2815\u2809\u2825\u280d\u2811\u281d\u281e\u2832\u281b\u2811\u281e\u2851\u2807\u2811\u280d\u2811\u281d\u281e\u2843\u283d\u284a\u2819\u2836\u2804": 3090, "\u2865\u2857\u2847": 3091, "\u2802\u2800\u2800\u2800\u2800\u2800\u2800\u2800\u2800\u2800\u2800\u2800\u2800\u2800\u2824\u2807\u2801\u281d\u281b\u2825\u2801\u281b\u2811": 3092, "\u280e\u2811\u281b\u280d\u2811\u281d\u281e\u280e\u2838": 3093, "\u280e\u2811\u281b\u280d\u2811\u281d\u281e\u280e\u2838\u2807\u280a\u280e\u281e": 3094, "\u2800\u2800\u280e\u283d\u280e\u2832\u280f\u2801\u281e\u2813\u2832\u280a\u281d\u280e\u2811\u2817\u281e\u2836\u289a\u2802\u2800\u280e\u281e\u2817\u2836\u284f\u2801\u281e\u2813\u2836\u2838\u2838\u280b\u280a\u2807\u2811\u2838\u2838\u2836\u2832\u280f\u2801\u2817\u2811\u281d\u281e\u2832\u280f\u2801\u2817\u2811\u281d\u281e\u2836\u2836\u2800": 3095, "\u280b\u280a\u2807\u2811\u2838\u2809\u2815\u281d\u281e\u2811\u281d\u281e": 3096, "\u281d\u2801\u280d\u2811\u283f\u2836": 3097, "\u282b\u282f\u2883\u2812\u2801\u2817\u281b\u280e": 3098, "\u2812\u2821\u281d\u2800\u2800\u2800\u2800\u282b\u282f\u289a\u2812\u280f\u2801\u280e\u280e": 3099, "\u282f\u2821\u281d\u2800\u2800\u2800\u2800\u282b\u282f\u289a\u2812": 3100, "\u283f\u2806\u2824\u2802\u2800\u2824": 3101, "\u2859\u2811\u280b": 3102, "\u284a\u281d\u280e\u2811\u2817": 3103, "\u2803\u2817\u2801\u280a\u2807\u2807\u2811\u2836\u280e\u2811\u2807\u280b\u2832\u2811\u281d\u2809\u2815\u2819\u2811\u2817\u2832\u2811\u281d\u2809\u2815\u2819\u2811\u2836": 3104, "\u2819\u2800\u280a\u281d\u2800": 3105, "\u2836\u2812\u2800\u2800\u2800\u2800\u2800\u2800\u2800\u2800\u2800\u2800\u2800\u2800\u2800\u2817\u2811\u281e\u2825\u2817\u281d\u2800": 3106, "\u2832\u280e\u281e\u2801\u2817\u281e\u280e\u283a\u280a\u281e\u2813\u2836\u2804": 3107, "\u2836\u2817": 3108, "\u2824\u2824\u2824\u2800\u2800\u2800\u2800\u2800\u2800\u2800\u2800\u2800\u280e\u2811\u2807\u280b\u2832": 3109, "\u2800\u2836\u2800\u2817\u2811\u2832": 3110, "\u2807\u280a\u281d\u2811\u280e\u2836\u2800\u2800\u2800\u2800\u2800\u2800\u2800\u2800\u2800\u2800\u2800\u2800\u2800\u2800\u2819\u2811\u280b\u2800": 3111, "\u2809\u2815\u2819\u280a\u281d\u281b\u2800": 3112, "\u284e\u2800\u2836\u2800\u2824": 3113, "\u281e\u2801\u280e\u2805\u2832\u2809\u2815\u281d\u2827\u2811\u2817\u280e\u2801\u281e\u280a\u2815\u281d": 3114, "\u280e\u281e\u2801\u281e\u2825\u280e\u2800\u2836\u2800\u285e\u2801\u280e\u2805\u284e\u281e\u2801\u281e\u2825\u280e\u2832": 3115, "\u281e\u2801\u280e\u2805\u2838\u280a\u2819": 3116, "\u2836\u2800\u2800\u2800\u2800\u2800\u2800\u2800\u2800\u2800\u2800\u2800\u2800\u2800\u2800\u2800\u2800\u2800\u280a\u2819\u2836": 3117, "\u2813\u2811\u2807\u280f": 3118, "\u2857\u2811\u2807\u2801\u281e\u280a\u2815\u281d\u285e\u283d\u280f\u2811\u2832": 3119, "\u2800\u2836\u2800\u280b\u2824\u282f": 3120, "\u2802\u2800\u2800\u2800\u2800\u2800\u2800\u2800\u2800\u2800\u2800\u2800\u2800\u2800\u2800\u2800\u2800\u2800\u2800\u2800\u2800\u2800\u2800\u2800\u2800\u2800\u2824": 3121, "\u280d\u2811\u281d\u2825\u2800": 3122, "\u284d\u2851\u285d\u2865": 3123, "\u2803\u2817\u2801\u280a\u2807\u2807\u2811\u2838\u2807\u2801\u2803\u2811\u2807": 3124, "\u2838\u280d\u2811\u281d\u2825": 3125, "\u2824\u2800\u2800\u2800\u2800\u2800\u2800\u2800\u2800\u2800\u2800\u2800\u2800\u2800\u2836\u2802\u2800\u2800\u2800\u2800\u2800\u2800\u2800\u2800\u2800\u2800\u2800\u2800\u2800\u2843\u2817\u2801\u280a\u2807\u2807\u2811\u284d\u2811\u281d\u2825\u284a\u281e\u2811\u280d\u2836\u2800\u2800\u2800\u2800\u2800\u2800\u2800\u2800\u2800\u2800\u2800\u2800\u2800\u2800\u2800\u2800\u2800\u280a\u2819\u2836\u2824": 3126, "\u280a\u281e\u2811\u280d\u2832\u280a\u281e\u2811\u280d\u2838\u281e\u283d\u280f\u2811\u2800\u2836\u2836\u2800\u284d\u2811\u281d\u2825\u284a\u281e\u2811\u280d\u285e\u283d\u280f\u2811\u2832": 3127, "\u2838\u284a\u2849\u2855\u285d\u284e\u282e\u2824": 3128, "\u2836\u2836\u2836\u2836": 3129, "\u2851\u2819\u280a\u281e\u2815\u2817": 3130, "\u2800\u2800\u2800\u2800\u2800\u2800\u2800\u2800\u2800\u2800\u2800\u2800\u2800\u2800\u2800\u2800\u2800\u2800\u2800\u2800\u2800\u2800\u2800\u2800\u2800\u2800\u2800\u2800\u2800\u2800\u2800\u2800\u2800": 3131, "\u280d\u2815\u2819\u280a\u280b\u280a": 3132, "\u2807\u2811\u281d\u2836\u280e\u2811\u2807\u280b\u2832\u2807\u280a\u281d\u2811\u280e": 3133, "\u2807\u280a\u281d\u2811\u282e\u280e\u2811\u2807\u280b\u2832\u2809\u2825\u2817\u280e\u2815\u2817\u2838\u2809\u2815\u2807\u2812\u283e": 3134, "\u2807\u280a\u281d\u2811\u280e\u282e\u280e\u2811\u2807\u280b\u2832\u2809\u2825\u2817\u280e\u2815\u2817\u2838\u2807\u280a\u281d\u2811\u283e\u2800\u2836\u2800\u2807\u280a\u281d\u2811\u282e\u2812\u280e\u2811\u2807\u280b\u2832\u2809\u2825\u2817\u280e\u2815\u2817\u2838\u2809\u2815\u2807": 3135, "\u2836\u2819\u2801\u281e\u2801\u2832\u281b\u2811\u281e\u2836\u2824": 3136, "\u280f\u2817\u2815\u281a\u2811\u2809\u281e\u2800": 3137, "\u2836\u281d\u2801\u280d\u2811": 3138, "\u2801\u2809\u281e\u280a\u2827\u2811\u2838\u280f\u2817\u2815\u281a\u2811\u2809\u281e\u2838\u280a\u2819": 3139, "\u281a\u280e\u2815\u281d\u2832": 3140, "\u2803\u2817\u2801\u280a\u2807\u2807\u2811\u2838\u2809\u2815\u280d\u280d\u2801\u281d\u2819": 3141, "\u280d\u280e\u281b\u2832": 3142, "\u2811\u2817\u2817\u2815\u2817\u2838\u281e\u2811\u282d\u281e": 3143, "\u2817\u2811\u2807\u2801\u281e\u280a\u2815\u281d\u280e\u2813\u280a\u280f\u280e": 3144, "\u2849\u2815\u2819\u2811\u284e\u283d\u280d\u2803\u2815\u2807": 3145, "\u2827\u280a\u280e\u280a\u281e\u2838": 3146, "\u285e\u2841": 3147, "\u2813\u280a\u281b\u2813\u2807\u280a\u281b\u2813": 3148, "\u2800\u2800\u2800\u2800\u2800\u2800\u2800\u2800\u2800\u2800\u2800\u2800\u2800\u2824": 3149, "\u2803\u2817\u2811\u2801\u2805\u280f\u2815\u280a\u281d\u281e": 3150, "\u281e\u2801\u2803": 3151, "\u280e\u2811\u2807\u280b\u2832\u2838\u280e\u2801\u2827\u2811\u2838": 3152, "\u2807\u280a\u281d\u2811\u2800\u2836\u2800\u280e\u2811\u2807\u280b\u2832": 3153, "\u280e\u2811\u2807\u280b\u2832\u284a\u285d\u2859\u284a\u2849\u2841\u285e\u2855\u2857": 3154, "\u2853\u2841\u284e": 3155, "\u2824\u2824\u2824\u2800\u2800\u2800\u2800\u2800\u2800\u2800\u2800\u2800\u280f\u2801\u280e\u280e\u2800\u2800\u2800\u2800\u2800\u2800\u2800\u2800\u2800\u2800\u2800\u2800\u2800\u2800\u2808": 3156, "\u2824\u2824\u2824\u2800\u2800\u2800\u2800\u2800\u2800\u2800\u2800\u2800\u280f\u2801\u280e\u280e\u2800\u2800\u2800\u2800\u2800\u2800\u2800\u2800\u2800\u2800\u2800\u2800\u2800\u2800\u2808\u2801\u2803\u280e\u281e\u2817\u2801\u2809\u281e\u280d\u2811\u281e\u2813\u2815\u2819\u2800\u2800\u2800\u2800\u2800\u2819\u2811\u280b\u2800": 3157, "\u2817\u2811\u2807\u2838\u280a\u2819": 3158, "\u2826\u2802\u2800": 3159, "\u280a\u281d\u2800\u280e\u2811\u2807\u280b\u2832\u281b\u2817\u2801\u280f\u2813": 3160, "\u2817\u2811\u280e\u2825\u2807\u281e\u2800\u2836\u2800\u280e\u2811\u280e\u280e\u280a\u2815\u281d\u2832\u2817\u2825\u281d\u2836": 3161, "\u284d\u2825\u2807\u281e\u280a\u280d\u2815\u2819\u2801\u2807": 3162, "\u280b\u2801\u280e\u281e\u2801\u280f\u280a": 3163, "\u284b\u2801\u280e\u281e": 3164, "\u280e\u2800\u280a\u280d\u280f\u2815\u2817\u281e\u2800": 3165, "\u284e\u281e\u2817\u2811\u2801\u280d": 3166, "\u280b\u280a\u281b": 3167, "\u2865\u281d\u280a\u280b\u280a\u2811\u2819\u2849\u2815\u281d\u2827\u2811\u2817\u280e\u2801\u281e\u280a\u2815\u281d": 3168, "\u2807\u280a\u280b": 3169, "\u2807\u280a\u280b\u2811\u280e": 3170, "\u280e\u2809\u2807\u2838\u2803\u2817\u280a\u2819\u281b\u2811\u2832": 3171, "\u2809\u2801\u281d\u2800": 3172, "\u281e\u2811\u282d\u281e\u2838\u2811\u281d\u2801\u2803\u2807\u2811\u2819": 3173, "\u2801\u2825\u281e\u2815\u2838\u280e\u280f\u2811\u2801\u2805": 3174, "\u280e\u280a\u280d\u2825\u2807\u281e\u2801\u281d\u2811": 3175, "\u280a\u281d\u281e\u2811\u2817\u280b\u2801\u2809\u2811": 3176, "\u2836\u2836\u2812\u2800\u2800\u2800\u2800\u2800\u2824\u2824\u2824": 3177, "\u281e\u2811\u2817\u280b\u2801\u2809\u2811\u2800": 3178, "\u2802\u2800\u281e\u2811\u282d\u281e": 3179, "\u2827\u280a\u2811": 3180, "\u2827\u280a\u2811\u283a": 3181, "\u2827\u280a\u2809\u2811": 3182, "\u280a\u281d\u280a\u281e\u280a\u2801\u2807": 3183, "\u281c\u2800\u2800\u2800\u2800\u2800\u2800\u2800\u2800\u2800": 3184, "\u280d\u280a\u2807": 3185, "\u2803\u2801\u2809\u2805\u281b\u2817\u2815\u2825\u281d\u2819\u2812\u2800\u2807\u280a\u281d\u2811": 3186, "\u2803\u2801\u2809\u2805\u281b\u2817\u2815\u2825\u281d\u2819\u2812\u2800\u2807\u280a\u281d\u2811\u2801\u2817": 3187, "\u2803\u2801\u2809\u2805\u281b\u2817\u2815\u2825\u281d\u2819\u2812\u2800\u2807\u280a\u281d\u2811\u2801\u2817\u2824": 3188, "\u2803\u2801\u2809\u2805\u281b\u2817\u2815\u2825\u281d\u2819\u2812\u2800\u2807\u280a\u281d\u2811\u2801\u2817\u2824\u281b": 3189, "\u2803\u2801\u2809\u2805\u281b\u2817\u2815\u2825\u281d\u2819\u2812\u2800\u2807\u280a\u281d\u2811\u2801\u2817\u2824\u281b\u2817\u2801\u2819\u280a": 3190, "\u2819\u2811\u281b": 3191, "\u289a\u282c": 3192, "\u2809\u2815\u281d\u281e\u2801": 3193, "\u2809\u2815\u281d\u281e\u2801\u280a\u281d": 3194, "\u280f\u282d\u2806\u2800": 3195, "\u2812\u2800\u2889": 3196, "\u289a\u289a\u280b\u280b": 3197, "\u289a\u289a\u280b\u280b\u2893\u2893": 3198, "\u280b\u2815\u281d\u281e\u2824\u280e\u280a\u2835\u2811\u2812\u2800\u2881": 3199, "\u2807\u2811\u281e\u281e\u2811\u2817": 3200, "\u2806\u2800\u283f\u2800\u2800\u2800\u2800\u2800\u2800\u2800\u2800\u2800\u2800\u2800\u2800\u2800\u2800\u2800\u2800\u2800\u2800": 3201, "\u280c\u2814\u2800": 3202, "\u2814\u280c\u2800\u2800\u2800\u2800\u2800\u2800\u2800\u2800\u2800": 3203, "\u281e\u2817\u2801\u281d\u280e\u280a\u281e\u280a\u2815\u281d": 3204, "\u281e\u2817\u2801\u281d\u280e\u280a\u281e\u280a\u2815\u281d\u2812\u2800": 3205, "\u2889\u288b": 3206, "\u2803\u2801\u2809\u2805\u281b\u2817\u2815\u2825\u281d\u2819\u2812\u2800\u2817\u281b\u2803\u2801\u2836\u2883\u2891\u2891\u2802\u2883\u2891\u2891\u2802\u2883\u2891\u2891\u2802": 3207, "\u2803\u2815\u2817\u2819\u2811\u2817\u2812\u2800\u2881\u280f\u282d\u2800\u280e\u2815\u2807\u280a\u2819\u2800\u2817\u281b\u2803\u2801\u2836\u2883\u2891\u2891\u2802\u2883\u2891\u2891\u2802\u2883\u2891\u2891\u2802": 3208, "\u2812\u2800\u2881\u2891\u280f\u282d\u2806\u2800\u2800\u2800\u2800\u2800\u2800\u2800\u2800\u2800\u2800\u2800\u2800\u2800": 3209, "\u280d\u2811\u280e\u2800": 3210, "\u281e\u2817\u2801\u281d\u280e\u280b\u2815\u2817\u280d": 3211, "\u2801\u280e\u280e\u280a\u280e\u281e": 3212, "\u2801\u281d\u281e\u2800": 3213, "\u280d\u2815\u2819\u2811\u2824\u2803\u281e\u281d": 3214, "\u2809\u2815\u2807\u2815\u2817\u2812\u2800\u283c\u280b\u280b": 3215, "\u283a\u2817\u2801\u280f": 3216, "\u2824\u2803\u281e\u281d": 3217, "\u280a\u281d\u280f\u2825\u281e\u2832": 3218, "\u280e\u281e\u2801\u281e\u2825\u280e\u2800": 3219, "\u2809\u2813\u2811\u2809\u2805\u2811\u2819\u2800": 3220, "\u280f\u2807\u2801\u283d\u2811\u2817": 3221, "\u2807\u2811\u280e": 3222, "\u2823\u2819\u280a\u2827\u2800\u2809\u2807\u2801\u280e\u280e\u2836\u2824\u281e\u2825\u2817\u281d\u2824": 3223, "\u2823\u280c\u280e\u280f\u2801\u281d\u281c": 3224, "\u2811\u281f\u2825": 3225, "\u2817\u2811\u2801\u2819": 3226, "\u2841\u2825\u281e": 3227, "\u2806\u2800\u2800\u2800\u2800\u2800\u2800\u2800\u2800\u2800\u2807\u2811\u281e\u2800": 3228, "\u2817\u2811\u280e\u280f\u2815\u281d\u280e\u2811\u2800\u2836\u2800\u2801\u283a\u2801\u280a\u281e\u2800\u280b\u2811\u281e\u2809\u2813": 3229, "\u2809\u2815\u281d\u280e\u281e\u2800\u2819\u2801\u281e\u2801\u2800\u2836\u2800\u2801\u283a\u2801\u280a\u281e\u2800": 3230, "\u2809\u2815\u281d\u280e\u281e\u2800\u2819\u2801\u281e\u2801\u2800\u2836\u2800\u2801\u283a\u2801\u280a\u281e\u2800\u2817\u2811\u280e\u280f\u2815\u281d\u280e\u2811\u2832\u281a\u280e\u2815\u281d": 3231, "\u2804\u2836\u2832\u281e\u2811\u282d\u281e\u2849\u2815\u281d\u281e\u2811\u281d\u281e\u2800\u2836\u2800": 3232, "\u280d\u2815\u2827\u2811": 3233, "\u2836\u2836\u2836\u2800\u2804": 3234, "\u2804\u2806\u2800\u2800\u2800\u2800\u2800\u2800\u2800\u2800\u2800\u2800\u2800\u2800\u2800": 3235, "\u283f\u2800\u2811\u2807\u280e\u2811\u2800": 3236, "\u281e\u2817\u283d\u2800\u282f\u2800\u2800\u2800\u2800\u2800\u2800\u2800\u2800\u2800\u2800\u2800\u2800\u2800\u2800\u2800\u2800\u2800\u2809\u2815\u281d\u280e\u281e\u2800": 3237, "\u280d\u2811\u281e\u2813\u2815\u2819\u2812\u2800\u2804\u284f\u2855\u284e\u285e\u2804": 3238, "\u2826\u2800": 3239, "\u2806\u2800\u2800\u2800\u2800\u2800\u2800\u2800\u2800\u2800\u2800\u2800\u2800\u2800\u2800\u2800\u2800\u2800\u2800\u2800\u2800\u2800\u2800\u2800\u2800\u2800\u2800\u2800\u2800\u2800\u2800\u2800\u2800\u2800\u2800": 3240, "\u2836\u2836\u2806\u2800\u2800\u2800\u2800\u2800\u2800\u2800\u2800\u2800\u2800\u2800\u2800\u2800\u2800\u2800\u2800\u2800": 3241, "\u283f\u2800\u2809\u2801\u281e\u2809\u2813\u2800\u2836\u2811\u2817\u2817": 3242, "\u283f\u2800\u2809\u2801\u281e\u2809\u2813\u2800\u2836\u2811\u2817\u2817\u2836\u2800\u282f\u2800\u2800\u2800\u2800\u2800\u2800\u2800\u2800\u2800\u2800\u2800\u2800\u2800\u2800\u2800\u2800\u2800": 3243, "\u2809\u2815\u281d\u280e\u2815\u2807\u2811": 3244, "\u283f\u2800\u2800\u2800\u2800\u2800\u2800\u2800\u2800\u2800\u2800\u2800\u2800\u2800\u2800\u2800\u2800\u2800\u2800\u2800\u2800\u2800\u2800\u2800\u2800\u2800\u2800": 3245, "\u280e\u2811\u280e\u280e\u280a\u2815\u281d\u2838\u280a\u2819\u2836": 3246, "\u2865\u280e\u2811\u2817": 3247, "\u284d\u2811": 3248, "\u2800\u2836\u2800\u281d\u2811\u283a\u2800": 3249, "\u285e\u2817\u2801": 3250, "\u280b\u2815\u2817\u280d\u2859\u2801\u281e\u2801": 3251, "\u2802\u2800\u2804": 3252, "\u2803\u2801\u280e\u2811\u288b\u2899": 3253, "\u2865\u280f\u2819\u2801\u281e": 3254, "\u2865\u280f\u2819\u2801\u281e\u2811\u2800": 3255, "\u283f\u2802\u2800\u2800\u2800\u2800\u2800\u2800\u2800\u2800\u2800\u2800\u2800\u2800\u2800\u2800\u2800\u2800\u2800": 3256, "\u280e\u2811\u280e\u280e\u280a\u2815\u281d\u2800\u2836\u2800": 3257, "\u2800\u2800\u2800\u2800\u2800\u2817\u2811\u281e\u2825\u2817\u281d\u2800": 3258, "\u280e\u2811\u280e\u280e\u280a\u2815\u281d\u2832": 3259, "\u2841\u2809": 3260, "\u2841\u285d": 3261, "\u2836\u2809\u2815\u281d\u281e\u2811\u281d\u281e": 3262, "\u280f\u2817\u2815\u2827\u280a\u2819\u2811": 3263, "\u2802\u2800\u2800\u2800\u2800\u2800\u2800\u2800\u2800\u2800\u2800\u2800\u2800\u2800\u2800\u2800\u2800\u2800\u2824\u2803\u2817\u2801\u280a\u2807\u2807\u2811": 3264, "\u2803\u2817\u2801\u280a\u2807\u2807\u2811\u2838\u2817\u2811\u280f\u2817": 3265, "\u2824\u2836\u2800\u2800\u2800\u2800\u2800\u2800\u2800\u2800\u2800\u2800\u2800\u2800\u2800\u2800\u2800\u2800\u2800\u2800\u2800\u2800\u2800\u2800": 3266, "\u280e\u280a\u280d\u280f": 3267, "\u2851\u281d\u2809\u2815\u2819\u2811\u2800": 3268, "\u280e\u2811\u280d\u2801\u281d\u281e\u280a\u2809\u2838": 3269, "\u280e\u2811\u280d\u2801\u281d\u281e\u280a\u2809\u2838\u2819\u2811\u281d\u280e\u280a\u281e\u283d": 3270, "\u280e\u281e\u2801\u281e\u2825\u280e\u2824\u2812\u2800\u2824": 3271, "\u2817\u2811\u280e\u280f\u2815\u281d\u280e\u2811\u2832\u280e\u281e\u2801\u281e\u2825\u280e\u2838\u2809\u2815\u2819\u2811": 3272, "\u2819\u2811\u2803\u2825\u281b": 3273, "\u281e\u2813\u2817\u2815\u2825\u281b\u2813": 3274, "\u280a\u281d\u2811": 3275, "\u2815\u283a\u2800": 3276, "\u2801\u2807\u281e\u2813": 3277, "\u2824\u2812\u2800\u2824\u280e\u2801\u2807\u2824": 3278, "\u2824\u2812\u2800\u282e\u2824": 3279, "\u2824\u2824\u2824\u2800\u284e\u2841\u2847\u2800\u2893\u2824\u2859\u2815\u281e\u2800": 3280, "\u2809\u2815\u280d\u280f\u2807\u2811\u281e\u2811\u2800": 3281, "\u2801\u2827\u2801\u280e": 3282, "\u2801\u2827\u2801\u280e\u2809\u2817\u280a\u280f": 3283, "\u285e\u287d\u284f\u2851\u284e\u2849": 3284, "\u285e\u287d\u284f\u2851\u284e\u2849\u2857\u284a\u284f\u285e": 3285, "\u2804\u2802\u2800\u2804\u2803": 3286, "\u2817\u280a\u281e": 3287, "\u2849\u2815\u280d\u280d": 3288, "\u280f\u2801\u2817\u2811\u281d": 3289, "\u2809\u2815\u2819\u2811\u2800\u281e\u2815\u2800": 3290, "\u2832\u2800\u2800\u2800\u2800\u2800": 3291, "\u2801\u2803\u2801\u280e\u2811": 3292, "\u2836\u280e\u2811\u2807\u280b\u2836\u2800\u2824\u281c\u2800\u2859\u280a\u2809\u281e": 3293, "\u2807\u2801\u280d\u2803": 3294, "\u2824\u2836\u2802\u2800\u2800\u2800\u2800\u2800\u2800\u2800\u2800\u2800\u2800\u2800\u2800\u2800\u283c\u2800": 3295, "\u280e\u2800\u2800\u2800\u2800\u2800\u2800\u2800\u2800\u2800\u2800\u2800\u2800\u2800\u2836\u2824": 3296, "\u2824\u2802\u2800\u2824\u2803\u2825\u280a\u2807\u281e\u280a\u281d\u2824\u2836\u2802\u2800\u2836\u2824": 3297, "\u2824\u2802\u2800\u2824\u280e\u280f\u2811\u2809\u280a\u2801\u2807": 3298, "\u2824\u2836\u2802\u2800\u2800\u2800\u2800\u2800\u2800\u2800\u2800\u2800\u283e\u2800\u2800\u2800\u2800\u2800\u2800\u2800\u2800\u2800\u280b\u2815\u2817\u2800": 3299, "\u2824\u2836\u2802\u2800\u2800\u2800\u2800\u2800\u2800\u2800\u2800\u2800\u283e\u2800\u2800\u2800\u2800\u2800\u2800\u2800\u2800\u2800\u280b\u2815\u2817\u2800\u2805\u283a": 3300, "\u2824\u2836\u2802\u2800\u2800\u2800\u2800\u2800\u2800\u2800\u2800\u2800\u283e\u2800\u2800\u2800\u2800\u2800\u2800\u2800\u2800\u2800\u280b\u2815\u2817\u2800\u2805\u283a\u2802\u2800": 3301, "\u2824\u2836\u2802\u2800\u2800\u2800\u2800\u2800\u2800\u2800\u2800\u2800\u283e\u2800\u2800\u2800\u2800\u2800\u2800\u2800\u2800\u2800\u280b\u2815\u2817\u2800\u2805\u283a\u2802\u2800\u2809\u2801\u281e": 3302, "\u2824\u2836\u2802\u2800\u2800\u2800\u2800\u2800\u2800\u2800\u2800\u2800\u283e\u2800\u2800\u2800\u2800\u2800\u2800\u2800\u2800\u2800\u280b\u2815\u2817\u2800\u2805\u283a\u2802\u2800\u2809\u2801\u281e\u2800\u280a\u281d\u2800": 3303, "\u280e\u2812\u2800\u2800\u2800\u2800\u2800\u2800\u2800\u2800\u2800\u2800\u2800\u2800\u2800\u2805\u2811\u283d\u283a\u2815\u2817\u2819\u280e\u282e": 3304, "\u2802\u2800\u2809\u2801\u281e\u2811\u281b\u2815\u2817\u283d\u2836\u2809\u2801\u281e\u2800\u2800\u2800\u2800\u2800\u2800\u2800\u2800\u2800\u2800\u2800\u2800\u2800\u2836\u2836": 3305, "\u2825\u281d\u2819\u2811\u280b\u280a\u281d": 3306, "\u2867\u2841\u2847": 3307, "\u2857\u284a\u284d": 3308, "\u285d\u2865\u2847\u2847": 3309, "\u2847\u2801\u281d\u281b\u2825\u2801\u281b\u2811\u2832\u284e\u285f\u2847": 3310, "\u2838\u2809\u2813\u2801\u2817": 3311, "\u2836\u280e\u2811\u2807\u280b\u2802\u2800\u2803\u2817\u2801\u280a\u2807\u2807\u2811": 3312, "\u2859\u2811\u2809\u2815\u2819\u2811\u2800": 3313, "\u2824\u2824\u2824\u2800\u2800\u2800\u2800\u2800\u2800\u2800\u2800\u2800\u2817\u2811\u281e\u2825\u2817\u281d\u2800\u280e\u2811\u2807\u280b\u2832": 3314, "\u2836\u2812\u2800\u2800\u2800\u2800\u2800\u2800\u2800\u2800\u2800\u2800\u2800\u2800\u2800\u280a\u280b\u2800": 3315, "\u2803\u2815\u281e\u2813": 3316, "\u2806\u2804\u2802\u2800\u285d\u2815\u281d\u2811\u2836\u2802\u2800\u2800\u2800\u2800\u2800\u2800\u2800\u2800\u2800\u2800\u2800\u2800\u2800\u2800\u2800\u2800\u2800\u2836\u2804": 3317, "\u2849\u2807\u2801\u280e": 3318, "\u284e\u2851\u285e\u2800": 3319, "\u2855\u285d\u2800": 3320, "\u283e\u283e": 3321, "\u2811\u281d\u2809\u2815\u2819\u2811\u2817\u2800\u2836\u2800\u2843\u2817\u2801\u280a\u2807\u2807\u2811\u2849\u2815\u2819\u2811\u2851\u281d\u2809\u2815\u2819\u2811\u2817": 3322, "\u2800\u2800\u2800\u2800\u2800\u280b\u2815\u2817\u2800": 3323, "\u2824\u2802\u2800\u2800\u2800\u2800\u2800\u2800\u2800\u2800\u2800\u2800\u2800\u2800\u2800\u2800\u2800\u2800\u2800\u2824": 3324, "\u2804\u282f": 3325, "\u2809\u2815\u2819\u2811\u2832\u280e\u280f\u2807\u280a\u281e\u2836\u2804\u2821\u281d\u2804\u2836": 3326, "\u2804\u2836\u2802\u2800\u2800\u2800\u2800\u2800\u2800\u2800\u2800\u2800": 3327, "\u2804\u2836\u2802\u2800\u2800\u2800\u2800\u2800\u2800\u2800\u2800\u2800\u2836\u2804": 3328, "\u2836\u2804\u2802\u2800\u2804": 3329, "\u2824\u2800\u2800\u2800\u2800\u2800\u2800\u2800\u2800\u2800": 3330, "\u2800\u2836\u2800\u282e": 3331, "\u283a\u2817\u280a\u281e\u2811\u2800": 3332, "\u2800\u2800\u2800\u283c\u2800\u285b": 3333, "\u2800\u2800\u2800\u283c\u2800\u285b\u2807\u2815\u2803\u2801\u2807\u2800": 3334, "\u2800\u280a\u281d\u280e\u281e\u2801\u281d": 3335, "\u2812\u2800\u280e\u281e\u2817\u2800\u2836\u2800\u285d\u2815\u281d\u2811\u2836\u2800\u2824\u281c\u2800": 3336, "\u280e\u281e\u2817\u2812\u2800\u2800\u2800\u2800\u2800\u2824\u2824\u2824": 3337, "\u2803\u2801\u2809\u2805\u2800\u281e\u2815\u2800": 3338, "\u2812\u2800\u280e\u281e\u2817\u2836\u2800\u2824\u281c\u2800\u2847\u280a\u280e\u281e\u282e": 3339, "\u284e\u2811\u281e\u281e\u280a\u281d\u281b": 3340, "\u284e\u285e\u285e": 3341, "\u2824\u2800\u2800\u283c\u2800": 3342, "\u2812\u280c\u280c": 3343, "\u2812\u280c\u280c\u2807\u2815\u2809\u2801\u2807": 3344, "\u2812\u280c\u280c\u2807\u2815\u2809\u2801\u2807\u2813\u2815\u280e\u281e": 3345, "\u2812\u280c\u280c\u2807\u2815\u2809\u2801\u2807\u2813\u2815\u280e\u281e\u2812": 3346, "\u2889\u289a\u289a": 3347, "\u280b\u2825\u2807\u2807\u2800": 3348, "\u2800\u2827\u2801\u2807\u2825\u2811": 3349, "\u2841\u2802\u2800\u2815\u2817\u2819\u2836\u2804": 3350, "\u2836\u2800\u280b\u2815\u2817\u2800\u2809": 3351, "\u2809\u2815\u2819\u2811\u2800\u2824\u2800": 3352, "\u280e\u281e\u2815\u2817\u2811\u2800": 3353, "\u2812\u2800\u280b\u2807\u2815\u2801\u281e": 3354, "\u2811\u281d\u280e\u280a\u281e\u283d\u2800": 3355, "\u2819\u2815\u281e\u2838\u2819\u2811\u281d\u280e\u280a\u281e\u283d": 3356, "\u280c\u2800": 3357, "\u2809\u2811\u280a\u2827\u2811\u2838": 3358, "\u2836\u2800\u2801\u281d\u2819\u2800": 3359, "\u2800\u2836\u2800\u2843\u2817\u2801\u280a\u2807\u2807\u2811\u2893\u285e\u2813\u2815\u2825\u281b\u2813\u281e": 3360, "\u283a\u2813\u2811\u2817\u2811\u2800": 3361, "\u280f\u2817\u2815\u2809\u2811\u280e\u280e\u2815\u2817": 3362, "\u281e\u2815\u2824": 3363, "\u2851\u281d\u281b\u280a\u281d": 3364, "\u2841\u280e\u283d\u281d\u2809\u285b\u2811\u281d\u2811\u2817": 3365, "\u2824\u2824\u2824\u2800\u2800\u2800\u2800\u2800\u2800\u2800\u2800\u2800\u2800\u2819\u2811\u280b\u2800\u2838\u2838\u280a\u281d\u280a\u281e\u2838\u2838\u2836\u280e\u2811\u2807\u280b\u2836\u2812\u2800\u2800\u2800\u2800\u2800\u2800\u2800\u2800\u2800\u280e\u2811\u2807\u280b\u2832": 3366, "\u280a\u281d\u280a\u281e\u280a\u2801\u2807\u280a\u2835\u2811\u2819": 3367, "\u2841\u2817\u281b": 3368, "\u2801\u283a\u2801\u280a\u281e\u2800\u280e\u2811\u2807\u280b\u2832\u2838": 3369, "\u280e\u283d\u281d\u281e\u2813\u2811\u280e\u280a\u2835": 3370, "\u280e\u283d\u281d\u281e\u2813\u2811\u280e\u280a\u2835\u2811\u2838": 3371, "\u2824\u2824\u2824\u2800\u2800\u2800\u2800\u2800\u2800\u2800\u2800\u2800\u283c\u2800": 3372, "\u2812\u2800\u2800\u2800\u2800\u2800\u2800\u2800\u2800\u2800\u2800\u2800\u2800\u2800\u2800\u2800\u2800\u2800\u280a\u280b\u2800": 3373, "\u2824\u2824\u2824\u2800\u2800\u2800\u2800\u2800\u2800\u2800\u2800\u2800\u280a\u280b\u2800\u280e\u2811\u2807\u280b\u2832": 3374, "\u283e\u2800\u2800\u2800\u2800\u2800\u2800\u2800\u2800\u2800\u2800\u2800\u2800\u2800": 3375, "\u282f\u2824\u281d\u2801\u280d\u2811": 3376, "\u2824\u2802\u2800\u2824\u281b": 3377, "\u2803\u2811\u281e\u283a\u2811\u2811\u281d\u2800": 3378, "\u284e\u2811\u280d\u2801\u281d\u281e\u280a\u2809\u2800": 3379, "\u2817\u2801\u2807\u2800": 3380, "\u2801\u281d\u2801\u2807\u283d\u280e\u280a\u280e": 3381, "\u2811\u282d\u281e\u2817\u2801\u2809\u281e\u2838": 3382, "\u2800\u2836\u2800\u2801\u283a\u2801\u280a\u281e\u2800\u280e\u2811\u2807\u280b\u2832\u2838": 3383, "\u2802\u2800\u2807\u2801\u281d\u281b\u2825\u2801\u281b\u2811\u2802\u2800": 3384, "\u2824\u2802\u2800\u289a": 3385, "\u280e\u2809\u2807\u2838\u280f\u2801\u2817\u281e": 3386, "\u285d\u284a": 3387, "\u280e\u2801": 3388, "\u2836\u2800\u2800\u2800\u2800\u2800\u2800\u2800\u2800\u2800\u2800\u2800\u2800\u2800\u2800\u2819\u2811\u280b\u2800\u2838": 3389, "\u280b\u2817\u2815\u280d\u2800\u2803\u2817\u2801\u280a\u2807\u2807\u2811\u2893\u2838\u2809\u2815\u2817\u2811\u2800\u280a\u280d\u280f\u2815\u2817\u281e\u2800\u2843\u2817\u2801\u280a\u2807\u2807\u2811\u2893\u2851\u281d\u2809\u2815\u2819\u2811\u2817\u2802\u2800": 3390, "\u2851\u2817\u2817\u2815\u2817\u284e\u2811": 3391, "\u2851\u2817\u2817\u2815\u2817\u284e\u2811\u2827\u2811\u2817\u280a\u281e\u283d": 3392, "\u2851\u2857\u2857": 3393, "\u2851\u2857\u2857\u2855\u2857": 3394, "\u2853\u2801\u280f\u281e\u280a\u2809\u284e\u280a": 3395, "\u2853\u2801\u280f\u281e\u280a\u2809\u284e\u280a\u281b\u281d": 3396, "\u2853\u2801\u280f\u281e\u280a\u2809\u284e\u280a\u281b\u281d\u2801\u281e\u2825\u2817\u2811": 3397, "\u2803\u2817\u2801\u280a\u2807\u2807\u2811\u2838\u280e\u281d\u280a\u280f\u280f\u2811\u281e": 3398, "\u2811\u2817\u2817\u2815\u2817\u280e": 3399, "\u280e\u280a\u281b\u281d\u2801\u281e\u2825\u2817\u2811\u280e": 3400, "\u2800\u2800\u2800\u2800\u2800\u2800\u2800\u2800\u2800\u2800\u2800\u2800\u2800\u2800\u2800\u2800\u2800\u2800\u2800\u2800\u2800\u282f\u2824\u281e\u283d\u280f\u2811\u2824\u2812\u2800\u2824\u2827\u280a\u2803\u2817\u2801\u281e\u2811\u2824\u2802\u2800\u2824\u2819\u2825\u2817\u2801\u281e\u280a\u2815\u281d\u2824\u2812\u2800": 3401, "\u283f\u2802\u2800\u2800\u2800\u2800\u2800\u2800\u2800\u2800\u2800\u2800\u2800\u2800\u2800\u2800\u2800\u2800\u2800\u2800\u2800\u2800\u2800\u282f\u2824\u281e\u283d\u280f\u2811\u2824\u2812\u2800\u2824\u2827\u280a\u2803\u2817\u2801\u281e\u2811\u2824\u2802\u2800\u2824\u2819\u2825\u2817\u2801\u281e\u280a\u2815\u281d\u2824\u2812\u2800\u2881\u289a\u289a\u2802\u2800\u2824\u280a\u281d\u281e\u2811\u281d\u280e\u280a\u281e\u283d\u2824\u2812\u2800\u289a\u2832": 3402, "\u283f\u2802\u2800\u2800\u283c\u2800": 3403, "\u2809\u2815\u2819\u2811\u2800\u2801\u281d\u2819\u2800": 3404, "\u2827\u2811": 3405, "\u2811\u282d\u281e\u2811\u281d\u2819": 3406, "\u2807\u280a\u281d\u2811\u280e\u2800\u2836\u2800": 3407, "\u2800\u2800\u2800\u2800\u2800\u2800\u2800\u2800\u2800\u2800\u2800\u2800\u2800\u2800\u2800\u2800\u2800\u2800\u280b\u2815\u2817\u2800\u280a\u2802\u2800": 3408, "\u280f\u2817\u280a\u281d\u281e\u2836\u280b\u2824": 3409, "\u2801\u2817\u2819": 3410, "\u2849\u2815\u281d\u2827\u2811\u2817\u280e\u2801\u281e\u280a\u2815\u281d\u285e\u2825\u2817\u281d": 3411, "\u280a\u281d\u281b\u2838\u281e\u280a\u280d\u2811": 3412, "\u2825\u2825\u280a\u2819\u2832": 3413, "\u2825\u2825\u280a\u2819\u2832\u2825\u2825\u280a\u2819": 3414, "\u2825\u2825\u280a\u2819\u2832\u2825\u2825\u280a\u2819\u2899": 3415, "\u280f\u2817\u2815\u2803\u2801\u2803": 3416, "\u2801\u281e\u281e\u2817": 3417, "\u2812\u2800\u2800\u2800\u2800\u2800\u2800\u2800\u2800\u2800\u2824\u2824\u2824\u2849\u2817\u2811\u2801\u281e\u2811\u2800\u2801\u2800": 3418, "\u2847\u2801": 3419, "\u2813\u2883": 3420, "\u2824\u281c\u2823\u280c\u2819\u280a\u2827\u281c\u2800\u2800\u2800\u2800\u2800\u2800\u2800\u2800\u2800\u2800\u2800\u2800\u2800\u2800\u2800\u2800\u2800": 3421, "\u2819\u2811\u281e\u2801\u280a\u2807\u2836": 3422, "\u283a\u2811\u2803\u280e": 3423, "\u283a\u2811\u2803\u280e\u2815\u2809\u2805\u2811": 3424, "\u2841\u281d\u283d\u2800": 3425, "\u280e\u2825\u280b": 3426, "\u280e\u2825\u280b\u280b\u280a\u282d": 3427, "\u2836\u2800\u2824\u281c\u2800\u2859\u280a\u2809\u281e\u282e\u280e\u281e\u2817\u2802\u2800\u2841\u281d\u283d\u283e\u2812\u2800\u2800\u2800\u2800\u2800\u2800\u2800\u2800\u2800\u2824\u2824\u2824": 3428, "\u2800\u280a\u280d\u280f\u2815\u2817\u281e\u2800\u280e\u283d": 3429, "\u280e\u2800\u280b\u2817\u2815\u280d\u2800\u280f\u2801\u281e\u2813\u2807\u280a\u2803\u2800\u280a\u280d\u280f\u2815\u2817\u281e\u2800\u284f\u2801\u281e\u2813\u2800\u2800\u280e\u283d\u280e\u2832\u280f\u2801\u281e\u2813\u2832\u280a\u281d\u280e\u2811\u2817\u281e\u2836\u289a\u2802\u2800\u280e\u281e\u2817\u2836\u284f\u2801\u281e\u2813\u2836\u2838\u2838\u280b\u280a\u2807\u2811\u2838\u2838\u2836\u2832\u280f\u2801\u2817\u2811\u281d\u281e\u2832\u280f\u2801\u2817\u2811\u281d\u281e\u2836\u2836\u2800": 3430, "\u2836\u280e\u281e\u2817\u2802\u2800\u2851\u281d\u2825\u280d\u2836\u2812\u2800\u2800\u2800\u2800\u2800\u2824\u2824\u2824\u285e\u283d\u280f\u2811": 3431, "\u2836\u280e\u281e\u2817\u2802\u2800\u2851\u281d\u2825\u280d\u2836\u2812\u2800\u2800\u2800\u2800\u2800\u2824\u2824\u2824\u285e\u283d\u280f\u2811\u280e\u2800\u2815\u280b\u2800": 3432, "\u2849\u2815\u280d\u280f\u2807\u2811\u281e\u280a\u2815\u281d\u284a\u281e\u2811\u280d": 3433, "\u2824\u2802\u2800\u2800\u2800\u2800\u2800\u2800\u2800\u2800\u2800\u2800\u2800\u2800\u2800\u2849\u2815\u280d\u280f\u2807\u2811\u281e\u280a\u2815\u281d\u2845\u280a\u281d\u2819\u2832": 3434, "\u2812\u2821\u281d\u2800\u2800\u2800\u2800\u282b\u282f\u289a\u2812\u280f\u2801\u280e\u280e\u283f\u2824\u2802\u2800\u2824": 3435, "\u282b\u282f\u2881\u2812\u280a": 3436, "\u2807\u2801\u2803\u2811\u2807\u2838\u2807\u2815\u283a\u2811\u2817": 3437, "\u280e\u2800\u2836\u2800\u282f": 3438, "\u2836\u282e\u2818": 3439, "\u2824\u2821\u281d\u2824\u2832\u281a\u2815\u280a\u281d\u2836": 3440, "\u280d\u2801\u281e\u2809\u2813\u2832\u281b\u2817\u2815\u2825\u280f\u2836": 3441, "\u280d\u2801\u281e\u2809\u2813\u2832\u281b\u2817\u2815\u2825\u280f\u2836\u2883": 3442, "\u2811\u2807\u280e\u2811\u2800\u2824\u2824": 3443, "\u2811\u280e\u280e\u283d\u2800": 3444, "\u2809\u2807\u2811\u2801\u281d": 3445, "\u2811\u282d\u280f\u2807\u2801": 3446, "\u283e\u2800\u2892\u2800\u282e": 3447, "\u2838\u281b\u2817\u2801\u280f\u2813\u2838\u280e\u281e\u2815\u2817\u2811": 3448, "\u281b\u2817\u2801\u280f\u2813\u2838\u280e\u281e\u2815\u2817\u2811\u2800": 3449, "\u284b\u2801\u2809\u281e": 3450, "\u2865\u285d\u2859\u2851\u2857": 3451, "\u2865\u285d\u2859\u2851\u2857\u284e\u285e\u2841": 3452, "\u2849\u2847\u2841\u2857\u284a": 3453, "\u2849\u2847\u2841\u2857\u284a\u284b": 3454, "\u281f\u2825\u280a\u2817\u2811": 3455, "\u2827\u2811\u2817\u280a\u280b\u280a\u2809\u2801\u281e\u280a\u2815\u281d": 3456, "\u2855\u2847": 3457, "\u284e\u287d": 3458, "\u284e\u287d\u284e\u285e\u2851": 3459, "\u284e\u287d\u284e\u285e\u2851\u284d": 3460, "\u284e\u287d\u284e\u285e\u2851\u284d\u2838\u284f": 3461, "\u284e\u287d\u284e\u285e\u2851\u284d\u2838\u284f\u2857\u2855\u284d": 3462, "\u284e\u287d\u284e\u285e\u2851\u284d\u2838\u284f\u2857\u2855\u284d\u284f\u285e": 3463, "\u281e\u280a\u280d\u2811\u280e\u281e\u2801\u280d\u280f\u2824\u2812\u2800\u2819\u2801\u281e\u2811\u281e\u280a\u280d\u2811\u2832\u281d\u2815\u283a\u2836\u2836\u2832\u280a\u280e\u2815\u280b\u2815\u2817\u280d\u2801\u281e": 3464, "\u2821\u280e\u282e\u2821\u283a\u282e": 3465, "\u2802\u2800\u2800\u2800\u2800\u2800\u2800\u2800\u2800\u2800\u283c\u2800": 3466, "\u2812\u2800\u2824\u282f": 3467, "\u2812\u2800\u2824\u282f\u281e\u2801\u280e\u2805\u2832": 3468, "\u284e\u285e\u2851\u284f": 3469, "\u281b\u2817\u2801\u280f\u2813\u2838": 3470, "\u2832\u2809\u2817\u2811\u2801\u281e\u2811\u2838\u281d\u2815\u2819\u2811\u2836": 3471, "\u281e\u283d\u280f\u2811\u2836\u2857\u2811\u2807\u2801\u281e\u280a\u2815\u281d\u285e\u283d\u280f\u2811\u2832": 3472, "\u2832\u2809\u2817\u2811\u2801\u281e\u2811\u2838\u2817\u2811\u2807\u2801\u281e\u280a\u2815\u281d\u280e\u2813\u280a\u280f": 3473, "\u2809\u2813\u2801\u2817\u2801\u2809\u281e\u2811\u2817\u2800": 3474, "\u2800\u2800\u2800\u2800\u2800\u2800\u2800\u2800\u2800\u2800\u2800\u2800\u2800\u2836\u2802\u2800\u2800\u2800\u2800\u2800\u2800\u2800\u2800\u2800\u2800\u2800\u2800\u2800\u2843\u2817\u2801\u280a\u2807\u2807\u2811\u284d\u2811\u281d\u2825\u284a\u281e\u2811\u280d\u2836\u2800\u2800\u2800\u2800\u2800\u2800\u2800\u2800\u2800\u2800\u2800\u2800\u2800\u2800\u2800\u2800\u2800\u280a\u2819\u2836\u2824": 3475, "\u2807\u280a\u281d\u2811\u2838\u281d\u2825\u280d\u2803\u2811\u2817": 3476, "\u2809\u2825\u2817\u2817\u2811\u281d\u281e\u2838\u2827\u2801\u2807\u280a\u2819": 3477, "\u2809\u2825\u2817\u2817\u2811\u281d\u281e\u2838\u2827\u2801\u2807\u280a\u2819\u2838\u280a\u2819\u282d": 3478, "\u284a\u2859": 3479, "\u2809\u280d": 3480, "\u2809\u2813\u2801\u2817\u2800\u2836\u2836\u2800\u2804": 3481, "\u2824\u2802\u2800\u2800\u2800\u2800\u2800\u2824": 3482, "\u2803\u2817\u2801\u280a\u2807\u2807\u2811\u2838\u2809\u2815\u281d\u281e\u2811\u281d\u281e": 3483, "\u280d\u2815\u2819\u280a\u280b\u280a\u2811\u2819\u2838": 3484, "\u280d\u2815\u2819\u280a\u280b\u280a\u2811\u2819\u2838\u2801\u281e": 3485, "\u281e\u2811\u282d\u281e\u2838\u2809\u2815\u281d\u281e\u2811\u281d\u281e": 3486, "\u284a\u281d\u280e\u2811\u2817\u281e\u2800": 3487, "\u2801\u281e\u2800\u2809\u2825\u2817\u280e\u2815\u2817": 3488, "\u2807\u280a\u281d\u2811\u280e\u282e\u280e\u2811\u2807\u280b\u2832\u2809\u2825\u2817\u280e\u2815\u2817\u2838\u2807\u280a\u281d\u2811\u283e\u2800\u2800\u2800\u2800\u2800\u2800\u2800\u2800\u2800\u2800\u2800\u2800\u2800": 3489, "\u2809\u2825\u2817\u280e\u2815\u2817\u2838\u2807\u280a\u281d\u2811\u2800": 3490, "\u2836\u2800\u2824\u2800\u2881": 3491, "\u284e\u281e\u2801\u281e\u2811": 3492, "\u280f\u2817\u2815\u281a\u2811\u2809\u281e\u280e": 3493, "\u2817\u2811\u280e\u2825\u2807\u281e\u2800\u2836\u2800\u2824": 3494, "\u284e\u2841\u2847\u2857\u2811\u280e\u280f\u2815\u281d\u280e\u2811\u2812\u2800\u2800\u2800\u2800\u2800\u2800\u2800\u2800\u2800\u2824\u2824\u2824": 3495, "\u2811\u2827\u2801\u2807": 3496, "\u2811\u2827\u2801\u2807\u2838\u2809\u2815\u2825\u281d\u281e": 3497, "\u281e\u2815\u2805\u2811\u281d\u2838\u2809\u2815\u2825\u281d\u281e": 3498, "\u2802\u2800\u280a\u281d\u2809\u2807\u2825\u2819\u2811\u2838\u280b\u280a\u2807\u2811\u2836\u284b\u2801\u2807\u280e\u2811": 3499, "\u284a\u284d\u284f\u2855\u2857": 3500, "\u284a\u284d\u284f\u2855\u2857\u285e": 3501, "\u2849\u2815\u2819\u2811\u2841\u281d": 3502, "\u2849\u2815\u2819\u2811\u2841\u281d\u2801\u2807\u283d": 3503, "\u2849\u2815\u2819\u2811\u2841\u281d\u2801\u2807\u283d\u280e\u280a\u280e": 3504, "\u2836\u2836\u2800\u2800\u2800\u2800\u2800\u2800\u2800\u2800\u2800\u2800\u2800\u2800\u2800\u2800\u2819\u2811\u280b\u2800": 3505, "\u280a\u280d\u280f\u2832": 3506, "\u2836\u280e\u2811\u2807\u280b\u2802\u2800\u281d\u2815\u2819\u2811\u2812\u2800": 3507, "\u2836\u280e\u2811\u2807\u280b\u2802\u2800\u281d\u2815\u2819\u2811\u2812\u2800\u2801\u280e\u281e\u2832": 3508, "\u2836\u2812\u2800\u2800\u2800\u2800\u2800\u2800\u2800\u2800\u2800\u2824\u2824\u2824\u2867\u280a\u280e\u280a\u281e\u2800": 3509, "\u2832\u2814": 3510, "\u2817\u2811\u2807\u2801\u281e\u280a\u2815\u281d\u280e\u2813\u280a\u280f\u280e\u2838\u2809\u2817\u2811\u2801\u281e\u2811\u2819": 3511, "\u2849\u2855\u285d\u285e\u2841": 3512, "\u2849\u2855\u285d\u285e\u2841\u284a\u285d\u284e": 3513, "\u284e\u285e\u2857": 3514, "\u284e\u285e\u2857\u284a\u285d\u285b": 3515, "\u284e\u284f": 3516, "\u284e\u284f\u2841": 3517, "\u2824\u2812\u2800\u285e\u2815\u2805\u2811\u281d\u285e\u283d\u280f\u2811\u2832\u285e\u287d\u284f\u2851\u2802\u2800\u2824\u2825": 3518, "\u2803\u2811\u280e\u281e\u2838\u281e\u283d\u280f\u2811": 3519, "\u280d\u2801\u281e\u2809\u2813\u2811\u2819\u2838": 3520, "\u2825\u281d\u2819\u2815\u2838\u280e\u281e\u2801\u2809\u2805": 3521, "\u2807\u280a\u281d\u2811\u2838\u2803\u2817\u2801\u280a\u2807\u2807\u2811": 3522, "\u2812\u282f": 3523, "\u280e\u281f\u2807\u280a": 3524, "\u280e\u281f\u2807\u280a\u281e\u2811": 3525, "\u280e\u281f\u2807\u280a\u281e\u2811\u2889": 3526, "\u281d\u2811\u2815\u2899\u281a": 3527, "\u284e\u2824\u2800\u2800\u2800\u2800\u2800": 3528, "\u2836\u280e\u2811\u2807\u280b\u2802\u2800\u281d\u2815\u2819\u2811\u2812\u2800\u285d\u2815\u2819\u2811": 3529, "\u2836\u2800\u2824\u281c\u2800\u285d\u2815\u2819\u2811": 3530, "\u2802\u2800\u2800\u2800\u2800\u2800\u2800\u2800\u2800\u2800\u2800\u2800\u2800\u2800\u2800\u2800\u2800\u2800\u2800\u2800\u2800\u2800\u2800\u2800\u2800\u2800\u2800\u2800\u2800": 3531, "\u2836\u280e\u2811\u2807\u280b\u2832\u2819\u2803\u2838\u280f\u2801\u281e\u2813": 3532, "\u284a\u284b\u2800": 3533, "\u284a\u284b\u2800\u285d\u2855\u285e\u2800": 3534, "\u284a\u284b\u2800\u285d\u2855\u285e\u2800\u2851\u286d\u284a\u284e\u285e": 3535, "\u284a\u284b\u2800\u285d\u2855\u285e\u2800\u2851\u286d\u284a\u284e\u285e\u284e\u2800": 3536, "\u2802\u2800\u280a\u2819\u2836": 3537, "\u282e\u2817": 3538, "\u281e\u283d\u280f\u2811\u2838\u280b\u280a\u2807\u281e\u2811\u2817": 3539, "\u2849\u2813\u2801\u281e": 3540, "\u2849\u2813\u2801\u281e\u285b": 3541, "\u284f\u285e\u2800": 3542, "\u284b\u2801\u280e\u281e\u2841\u284f\u284a": 3543, "\u284b\u2815\u2817\u280d": 3544, "\u2859\u280a\u280e": 3545, "\u285f\u2825": 3546, "\u2853\u285e\u284d\u2847": 3547, "\u2857\u2811\u280e\u280f\u2815\u281d": 3548, "\u2807\u2815\u281b\u2825\u2817": 3549, "\u2807\u2815\u281b\u2825\u2817\u2825": 3550, "\u2807\u2815\u281b\u2825\u2817\u2825\u2800\u280a\u280d\u280f\u2815\u2817\u281e\u2800": 3551, "\u2807\u2815\u281b\u2825\u2817\u2825\u2800\u280a\u280d\u280f\u2815\u2817\u281e\u2800\u2807\u2815\u281b\u281b\u2811": 3552, "\u2807\u2815\u281b\u2825\u2817\u2825\u2800\u280a\u280d\u280f\u2815\u2817\u281e\u2800\u2807\u2815\u281b\u281b\u2811\u2817": 3553, "\u2809\u2815\u281d\u280b\u280a\u281b": 3554, "\u280e\u281e\u281e\u2838\u2811\u281d\u281b\u280a\u281d\u2811\u2800": 3555, "\u281e\u281e\u280e\u2838\u2811\u281d\u281b\u280a\u281d\u2811\u2800": 3556, "\u280e\u2811\u280e\u280e\u280a\u2815\u281d\u2838\u280d\u2801\u281d\u2801\u281b\u2811\u2817": 3557, "\u2807\u280a\u280b\u2811\u280e\u280f\u2801\u281d": 3558, "\u2836\u2812\u2800\u2800\u2800\u2800\u2800": 3559, "\u280e\u2836\u282e\u2824": 3560, "\u280e\u2836\u282e\u2824\u2814": 3561, "\u280e\u2836\u282e\u2824\u2814\u2824\u283e": 3562, "\u2803\u2815\u2815\u2807\u283e\u2800\u2836\u2800\u285d\u2815\u281d\u2811\u2800\u2800\u2800\u2800\u2800": 3563, "\u2841\u284f\u284a\u2800": 3564, "\u2803\u2815\u282d\u2824": 3565, "\u2819\u2811\u281b\u2802\u2800\u283c": 3566, "\u2881\u2801": 3567, "\u2811\u2893": 3568, "\u2812\u2800\u289a\u2800": 3569, "\u2813\u2881": 3570, "\u288b\u2803": 3571, "\u2815\u280f\u2801\u2809\u280a\u281e\u283d\u2812\u2800\u289a\u2832\u289b": 3572, "\u280b\u2815\u281d\u281e\u2824\u280e\u280a\u2835\u2811\u2812\u2800\u289a\u2832": 3573, "\u2806\u2800\u283f\u2800\u2800\u2800\u2800\u2800\u2800\u2800\u2800\u2800\u2800\u2800\u2800\u2800\u2800\u2800\u2800\u2800\u2800\u280c\u2814\u2800": 3574, "\u2809\u2815\u281d\u281e\u2811\u281d\u281e\u2812\u2800": 3575, "\u280d\u2815\u2819\u2811\u2824\u2803\u2801": 3576, "\u280d\u2815\u2819\u2811\u2824\u2803\u2801\u2819": 3577, "\u288b\u280f\u282d\u2806\u2800\u2800\u2800\u2800\u2800\u2800\u2800\u2800\u2800\u2800\u2800\u2800\u2800": 3578, "\u2891\u2811\u280d\u2806\u2800\u2800\u2800\u2800\u2800\u2800\u2800\u2800\u2800\u2800\u2800\u2800\u2800": 3579, "\u2803\u2801\u2809\u2805\u281b\u2817\u2815\u2825\u281d\u2819\u2812\u2800\u2817\u281b\u2803\u2801\u2836\u289a\u2802": 3580, "\u2803\u2801\u2809\u2805\u281b\u2817\u2815\u2825\u281d\u2819\u2812\u2800\u2817\u281b\u2803\u2801\u2836\u289a\u2802\u289a\u2802": 3581, "\u2803\u2801\u2809\u2805\u281b\u2817\u2815\u2825\u281d\u2819\u2812\u2800\u2817\u281b\u2803\u2801\u2836\u289a\u2802\u289a\u2802\u289a\u2802": 3582, "\u2807\u2811\u280b\u281e": 3583, "\u2812\u2800\u2881\u289a\u280f\u282d\u2806\u2800\u2800\u2800\u2800\u2800\u2800\u2800\u2800\u2800\u2800\u2800\u2800\u2800": 3584, "\u2809\u2815\u2807\u2815\u2817\u2812\u2800\u283c\u289a\u289a\u2819\u288a\u280b\u280b": 3585, "\u280a\u281d\u280f\u2825\u281e\u2824": 3586, "\u280b\u2807\u2811\u282d": 3587, "\u2836\u2802\u2800": 3588, "\u2812\u2800\u2881\u289a\u280f\u282d": 3589, "\u2881\u289a\u289b\u2802": 3590, "\u289a\u2800\u289a\u2800": 3591, "\u284f\u2807\u2801": 3592, "\u281c\u2800\u2823\u280c": 3593, "\u2803\u2815\u2819\u283d": 3594,
[...]
